{
  "version": "1.0",
  "truncation": null,
  "padding": null,
  "added_tokens": [
    {
      "id": 0,
      "content": "<pad>",
      "single_word": false,
      "lstrip": false,
      "rstrip": false,
      "normalized": false,
      "special": true
    },
    {
      "id": 1,
      "content": "<unk>",
      "single_word": false,
      "lstrip": false,
      "rstrip": false,
      "normalized": false,
      "special": true
    },
    {
      "id": 2,
      "content": "<s>",
      "single_word": false,
      "lstrip": false,
      "rstrip": false,
      "normalized": false,
      "special": true
    },
    {
      "id": 3,
      "content": "</s>",
      "single_word": false,
      "lstrip": false,
      "rstrip": false,
      "normalized": false,
      "special": true
    }
  ],
  "normalizer": null,
  "pre_tokenizer": {
    "type": "ByteLevel",
    "add_prefix_space": false,
    "trim_offsets": true,
    "use_regex": true
  },
  "post_processor": {
    "type": "TemplateProcessing",
    "single": [
      {
        "Sequence": {
          "id": "A",
          "type_id": 0
        }
      },
      {
        "SpecialToken": {
          "id": "</s>",
          "type_id": 0
        }
      }
    ],
    "pair": [
      {
        "Sequence": {
          "id": "A",
          "type_id": 0
        }
      },
      {
        "Sequence": {
          "id": "B",
          "type_id": 1
        }
      }
    ],
    "special_tokens": {
      "</s>": {
        "id": "</s>",
        "ids": [
          3
        ],
        "tokens": [
          "</s>"
        ]
      }
    }
  },
  "decoder": {
    "type": "ByteLevel",
    "add_prefix_space": true,
    "trim_offsets": true,
    "use_regex": true
  },
  "model": {
    "type": "BPE",
    "dropout": null,
    "unk_token": null,
    "continuing_subword_prefix": null,
    "end_of_word_suffix": null,
    "fuse_unk": false,
    "byte_fallback": false,
    "ignore_merges": false,
    "vocab": {
      "<pad>": 0,
      "<unk>": 1,
      "<s>": 2,
      "</s>": 3,
      "!": 4,
      "\"": 5,
      "#": 6,
      "$": 7,
      "%": 8,
      "&": 9,
      "'": 10,
      "(": 11,
      ")": 12,
      "*": 13,
      "+": 14,
      ",": 15,
      "-": 16,
      ".": 17,
      "/": 18,
      "0": 19,
      "1": 20,
      "2": 21,
      "3": 22,
      "4": 23,
      "5": 24,
      "6": 25,
      "7": 26,
      "8": 27,
      "9": 28,
      ":": 29,
      ";": 30,
      "<": 31,
      "=": 32,
      ">": 33,
      "?": 34,
      "@": 35,
      "A": 36,
      "B": 37,
      "C": 38,
      "D": 39,
      "E": 40,
      "F": 41,
      "G": 42,
      "H": 43,
      "I": 44,
      "J": 45,
      "K": 46,
      "L": 47,
      "M": 48,
      "N": 49,
      "O": 50,
      "P": 51,
      "Q": 52,
      "R": 53,
      "S": 54,
      "T": 55,
      "U": 56,
      "V": 57,
      "W": 58,
      "X": 59,
      "Y": 60,
      "Z": 61,
      "[": 62,
      "\\": 63,
      "]": 64,
      "^": 65,
      "_": 66,
      "`": 67,
      "a": 68,
      "b": 69,
      "c": 70,
      "d": 71,
      "e": 72,
      "f": 73,
      "g": 74,
      "h": 75,
      "i": 76,
      "j": 77,
      "k": 78,
      "l": 79,
      "m": 80,
      "n": 81,
      "o": 82,
      "p": 83,
      "q": 84,
      "r": 85,
      "s": 86,
      "t": 87,
      "u": 88,
      "v": 89,
      "w": 90,
      "x": 91,
      "y": 92,
      "z": 93,
      "|": 94,
      "}": 95,
      "~": 96,
      "¡": 97,
      "¢": 98,
      "£": 99,
      "¤": 100,
      "¥": 101,
      "¦": 102,
      "§": 103,
      "¨": 104,
      "©": 105,
      "ª": 106,
      "«": 107,
      "¬": 108,
      "®": 109,
      "¯": 110,
      "°": 111,
      "±": 112,
      "²": 113,
      "³": 114,
      "´": 115,
      "µ": 116,
      "¶": 117,
      "·": 118,
      "¸": 119,
      "¹": 120,
      "º": 121,
      "»": 122,
      "¼": 123,
      "½": 124,
      "¾": 125,
      "¿": 126,
      "Â": 127,
      "Ã": 128,
      "Ä": 129,
      "Å": 130,
      "Æ": 131,
      "Ç": 132,
      "È": 133,
      "É": 134,
      "Ê": 135,
      "Ë": 136,
      "Ì": 137,
      "Í": 138,
      "Î": 139,
      "Ï": 140,
      "Ð": 141,
      "Ñ": 142,
      "Ò": 143,
      "Ó": 144,
      "Ô": 145,
      "Õ": 146,
      "Ö": 147,
      "×": 148,
      "Ø": 149,
      "Ù": 150,
      "Ú": 151,
      "Û": 152,
      "Ü": 153,
      "ß": 154,
      "à": 155,
      "á": 156,
      "â": 157,
      "ã": 158,
      "ä": 159,
      "å": 160,
      "æ": 161,
      "ç": 162,
      "è": 163,
      "é": 164,
      "ê": 165,
      "ë": 166,
      "ì": 167,
      "í": 168,
      "î": 169,
      "ï": 170,
      "ð": 171,
      "ó": 172,
      "Ā": 173,
      "ā": 174,
      "Ă": 175,
      "ă": 176,
      "Ą": 177,
      "ą": 178,
      "Ć": 179,
      "ć": 180,
      "Ĉ": 181,
      "ĉ": 182,
      "Ċ": 183,
      "Đ": 184,
      "Ē": 185,
      "ē": 186,
      "Ĕ": 187,
      "ė": 188,
      "Ę": 189,
      "ę": 190,
      "Ě": 191,
      "ě": 192,
      "ğ": 193,
      "Ġ": 194,
      "ġ": 195,
      "Ģ": 196,
      "ģ": 197,
      "Ĥ": 198,
      "ĥ": 199,
      "Ħ": 200,
      "ħ": 201,
      "Ĩ": 202,
      "ĩ": 203,
      "Ī": 204,
      "ī": 205,
      "Ĭ": 206,
      "ĭ": 207,
      "Į": 208,
      "į": 209,
      "İ": 210,
      "ı": 211,
      "Ĳ": 212,
      "ĳ": 213,
      "Ĵ": 214,
      "ĵ": 215,
      "Ķ": 216,
      "ķ": 217,
      "ĸ": 218,
      "Ĺ": 219,
      "ĺ": 220,
      "Ļ": 221,
      "ļ": 222,
      "Ľ": 223,
      "ľ": 224,
      "Ŀ": 225,
      "ŀ": 226,
      "Ł": 227,
      "ł": 228,
      "Ń": 229,
      "Ġt": 230,
      "Ġa": 231,
      "in": 232,
      "he": 233,
      "re": 234,
      "on": 235,
      "Ġthe": 236,
      "er": 237,
      "Ġs": 238,
      "Ġw": 239,
      "Ġo": 240,
      "at": 241,
      "Ġc": 242,
      "nd": 243,
      "it": 244,
      "ou": 245,
      "or": 246,
      "es": 247,
      "is": 248,
      "Ġf": 249,
      "en": 250,
      "Ġp": 251,
      "ing": 252,
      "Ġb": 253,
      "an": 254,
      "ed": 255,
      "Ġto": 256,
      "al": 257,
      "Ġm": 258,
      "Ġand": 259,
      "ar": 260,
      "Ġin": 261,
      "Ġof": 262,
      "Ġd": 263,
      "ic": 264,
      "le": 265,
      "om": 266,
      "ion": 267,
      "Ġh": 268,
      "as": 269,
      "Ġth": 270,
      "ll": 271,
      "Ġy": 272,
      "ent": 273,
      "Ġl": 274,
      "ve": 275,
      "ro": 276,
      "Ġe": 277,
      "Ġre": 278,
      "st": 279,
      "Ġn": 280,
      "Ġyou": 281,
      "ct": 282,
      "Ġg": 283,
      "ly": 284,
      "et": 285,
      "ĠI": 286,
      "âĢ": 287,
      "Ġis": 288,
      "Ġfor": 289,
      "Ġbe": 290,
      "ĠT": 291,
      "ut": 292,
      "ot": 293,
      "Ġon": 294,
      "id": 295,
      "ur": 296,
      "ĠS": 297,
      "ow": 298,
      "ay": 299,
      "us": 300,
      "ce": 301,
      "im": 302,
      "ig": 303,
      "ĠC": 304,
      "ch": 305,
      "ra": 306,
      "ĠA": 307,
      "ith": 308,
      "ver": 309,
      "ation": 310,
      "il": 311,
      "Ġthat": 312,
      "Ġst": 313,
      "ol": 314,
      "Ġwith": 315,
      "ad": 316,
      "am": 317,
      "ir": 318,
      "Ġit": 319,
      "se": 320,
      "Ġwe": 321,
      "âĢĻ": 322,
      "ĠM": 323,
      "Ġan": 324,
      "Ġpro": 325,
      "ill": 326,
      "Ġas": 327,
      "ers": 328,
      "Ġare": 329,
      "Ġhe": 330,
      "Ġwh": 331,
      "if": 332,
      "un": 333,
      "ĠP": 334,
      "ge": 335,
      "ke": 336,
      "Ġha": 337,
      "ĠB": 338,
      "Ġcon": 339,
      "ter": 340,
      "Ġor": 341,
      "ul": 342,
      "ess": 343,
      "Ġcom": 344,
      "oo": 345,
      "ĠW": 346,
      "ate": 347,
      "pp": 348,
      "her": 349,
      "ment": 350,
      "Ġyour": 351,
      "est": 352,
      "ld": 353,
      "ab": 354,
      "Ġde": 355,
      "Ġat": 356,
      "ĠThe": 357,
      "Ġse": 358,
      "Ġmo": 359,
      "Ġex": 360,
      "ri": 361,
      "ck": 362,
      "ĠH": 363,
      "rom": 364,
      "Ġne": 365,
      "ĠD": 366,
      "pe": 367,
      "igh": 368,
      "qu": 369,
      "ure": 370,
      "ĠF": 371,
      "ist": 372,
      "ort": 373,
      "Ġv": 374,
      "ity": 375,
      "ant": 376,
      "Ġ1": 377,
      "Ġhave": 378,
      "ive": 379,
      "ĠR": 380,
      "Ġcan": 381,
      "art": 382,
      "um": 383,
      "ust": 384,
      "Ġwas": 385,
      "Ġ2": 386,
      "Ġus": 387,
      "Ġfrom": 388,
      "op": 389,
      "ain": 390,
      "Ġthis": 391,
      "em": 392,
      "Ġ(": 393,
      "th": 394,
      "ĠL": 395,
      "Ġal": 396,
      "Ġr": 397,
      "Ġsh": 398,
      "ies": 399,
      "ĠG": 400,
      "Ġch": 401,
      "os": 402,
      "Ġwill": 403,
      "Ġnot": 404,
      "Ġby": 405,
      "el": 406,
      "Ġsu": 407,
      "ĠE": 408,
      "nt": 409,
      "and": 410,
      "Ġu": 411,
      "res": 412,
      "ome": 413,
      "ight": 414,
      "ĠN": 415,
      "all": 416,
      "Ġle": 417,
      "ard": 418,
      "ud": 419,
      "out": 420,
      "iv": 421,
      "Ġdo": 422,
      "ial": 423,
      "our": 424,
      "Ġwor": 425,
      "Ġab": 426,
      "ould": 427,
      "ie": 428,
      "red": 429,
      "Ġall": 430,
      "ĠO": 431,
      "ide": 432,
      "te": 433,
      "Ġpl": 434,
      "per": 435,
      "rou": 436,
      "gh": 437,
      "ĠâĢ": 438,
      "ine": 439,
      "Ġcomp": 440,
      "Ġso": 441,
      "Ġma": 442,
      "age": 443,
      "fe": 444,
      "ice": 445,
      "Ġj": 446,
      "ast": 447,
      "Ġk": 448,
      "pt": 449,
      "Ġad": 450,
      "ally": 451,
      "ear": 452,
      "ction": 453,
      "Ġhas": 454,
      "lo": 455,
      "00": 456,
      "The": 457,
      "Ġwhe": 458,
      "able": 459,
      "king": 460,
      "ag": 461,
      "ac": 462,
      "Ġen": 463,
      "Ġme": 464,
      "ther": 465,
      "so": 466,
      "ich": 467,
      "Ġbut": 468,
      "ip": 469,
      "ind": 470,
      "od": 471,
      "are": 472,
      "Ġout": 473,
      "ĠJ": 474,
      "Ġour": 475,
      "Ġup": 476,
      "very": 477,
      "ack": 478,
      "ite": 479,
      "Ġlo": 480,
      "one": 481,
      "ated": 482,
      "cc": 483,
      "ry": 484,
      "Ġmore": 485,
      "Ġtheir": 486,
      "du": 487,
      "ime": 488,
      "Ġte": 489,
      "Ġim": 490,
      "ĠU": 491,
      "ood": 492,
      "iz": 493,
      "for": 494,
      "'s": 495,
      "Ġthey": 496,
      "ong": 497,
      "ĠTh": 498,
      "ore": 499,
      "Ġmy": 500,
      "ous": 501,
      "Ġcont": 502,
      "Ġone": 503,
      "ks": 504,
      "ans": 505,
      "ance": 506,
      "ib": 507,
      "ost": 508,
      "ions": 509,
      "ike": 510,
      "Ġcl": 511,
      "ign": 512,
      "Ġinc": 513,
      "Ġman": 514,
      "ĠIn": 515,
      "Ġun": 516,
      "Ġapp": 517,
      "Ġfe": 518,
      "Ġres": 519,
      "ru": 520,
      "act": 521,
      "Ġabout": 522,
      "Ġwhich": 523,
      "reat": 524,
      "ire": 525,
      "Ġqu": 526,
      "ult": 527,
      "ail": 528,
      "ase": 529,
      "ations": 530,
      "Ġper": 531,
      "og": 532,
      "ace": 533,
      "ia": 534,
      "erv": 535,
      "ĠY": 536,
      "Ġalso": 537,
      "Ġany": 538,
      "ree": 539,
      "01": 540,
      "Ġwho": 541,
      "Ġtime": 542,
      "Ġoff": 543,
      "Ġother": 544,
      "to": 545,
      "ne": 546,
      "ach": 547,
      "form": 548,
      "Ġgo": 549,
      "ap": 550,
      "ber": 551,
      "ame": 552,
      "ass": 553,
      "ical": 554,
      "vel": 555,
      "ile": 556,
      "Ġsp": 557,
      "ary": 558,
      "ven": 559,
      "Ġdis": 560,
      "ep": 561,
      "ĠK": 562,
      "Ġget": 563,
      "ays": 564,
      "Ġyear": 565,
      "Ġlike": 566,
      "Ġpart": 567,
      "ence": 568,
      "Ġsome": 569,
      "ount": 570,
      "ue": 571,
      "ook": 572,
      "ĠIt": 573,
      "ff": 574,
      "Ġsa": 575,
      "Ġnew": 576,
      "ents": 577,
      "Ġta": 578,
      "own": 579,
      "Ġthem": 580,
      "ition": 581,
      "ub": 582,
      "Ġneed": 583,
      "pl": 584,
      "Ġtra": 585,
      "âĢĿ": 586,
      "ings": 587,
      "ĠV": 588,
      "ors": 589,
      "ress": 590,
      "Ġspe": 591,
      "ick": 592,
      "Ġhis": 593,
      "Ġar": 594,
      "ond": 595,
      "cial": 596,
      "Ġover": 597,
      "ĠSt": 598,
      "Ġ3": 599,
      "Ġif": 600,
      "Ġrec": 601,
      "ark": 602,
      "Ġwhen": 603,
      "Ġbeen": 604,
      "Ġthere": 605,
      "Ġro": 606,
      "Ġimp": 607,
      "ĠWe": 608,
      "ĠCh": 609,
      "Ġsc": 610,
      "ild": 611,
      "Ġco": 612,
      "Ġag": 613,
      "Ġ201": 614,
      "Ġpe": 615,
      "Ġpre": 616,
      "Ġwork": 617,
      "av": 618,
      "ens": 619,
      "Ġkn": 620,
      "Ġwhat": 621,
      "Ġthan": 622,
      "Ġwould": 623,
      "Ġdes": 624,
      "Ġacc": 625,
      "ough": 626,
      "ish": 627,
      "wn": 628,
      "ren": 629,
      "Ġam": 630,
      "int": 631,
      "nder": 632,
      "Ġwere": 633,
      "ater": 634,
      "ĠâĢľ": 635,
      "Ġhow": 636,
      "ord": 637,
      "Ġjust": 638,
      "lp": 639,
      "rough": 640,
      "ound": 641,
      "Ġprov": 642,
      "Ġhad": 643,
      "Ġcomm": 644,
      "Ġinto": 645,
      "Ġbec": 646,
      "vers": 647,
      "lud": 648,
      "Ġ\"": 649,
      "use": 650,
      "ak": 651,
      "Ġhelp": 652,
      "lic": 653,
      "Ġbu": 654,
      "ĠThis": 655,
      "Ġmake": 656,
      "Ġserv": 657,
      "irst": 658,
      "Ġmay": 659,
      "ang": 660,
      "ople": 661,
      "Ġits": 662,
      "ning": 663,
      "Ġno": 664,
      "ory": 665,
      "Ġadd": 666,
      "old": 667,
      "Ġpr": 668,
      "Ġuse": 669,
      "fter": 670,
      "ces": 671,
      "ram": 672,
      "ual": 673,
      "rent": 674,
      "ments": 675,
      "Ġprodu": 676,
      "Ġem": 677,
      "Ġ-": 678,
      "Ġher": 679,
      "Ġmost": 680,
      "Ġind": 681,
      ").": 682,
      "itt": 683,
      "we": 684,
      "ices": 685,
      "ft": 686,
      "ose": 687,
      "Ġtr": 688,
      "Ġpeople": 689,
      "Ġinclud": 690,
      "Ġwell": 691,
      "cts": 692,
      "ious": 693,
      "Ġknow": 694,
      "oc": 695,
      "Ġonly": 696,
      "tern": 697,
      "les": 698,
      "Ġthrough": 699,
      "ily": 700,
      "ates": 701,
      "ons": 702,
      "je": 703,
      "Ġtw": 704,
      "hed": 705,
      "end": 706,
      "ull": 707,
      "ink": 708,
      "Ġevery": 709,
      "round": 710,
      "Ġph": 711,
      "Ġbet": 712,
      "ĠHe": 713,
      "Ġfirst": 714,
      "ian": 715,
      "Ġcons": 716,
      "ise": 717,
      "ating": 718,
      "Ġthese": 719,
      "Ġ5": 720,
      "Ġunder": 721,
      "ause": 722,
      "Ġwant": 723,
      "ities": 724,
      "Ġsupp": 725,
      "ific": 726,
      "bs": 727,
      "Ġdif": 728,
      "Ġexper": 729,
      "..": 730,
      "Ġpo": 731,
      "Ġvery": 732,
      "Ġ4": 733,
      "Ġsee": 734,
      "ade": 735,
      "ĠâĢĵ": 736,
      "mer": 737,
      "Ġrep": 738,
      "hen": 739,
      "Th": 740,
      "li": 741,
      "Ġback": 742,
      "iness": 743,
      "Ġcol": 744,
      "amp": 745,
      "ĠYou": 746,
      "Ġreg": 747,
      "Ġsy": 748,
      "cess": 749,
      "ert": 750,
      "ful": 751,
      "ange": 752,
      "ict": 753,
      "xt": 754,
      "oth": 755,
      "lect": 756,
      "iew": 757,
      "ph": 758,
      "Ġact": 759,
      "Ġra": 760,
      "Ġmany": 761,
      "ced": 762,
      "any": 763,
      "Ġbus": 764,
      "uch": 765,
      "Ġgood": 766,
      "fore": 767,
      "Ġstud": 768,
      "Ġke": 769,
      "ures": 770,
      "Ġinv": 771,
      "Ġtwo": 772,
      "ible": 773,
      "day": 774,
      "'t": 775,
      "Ġfl": 776,
      "row": 777,
      "fect": 778,
      "iss": 779,
      "Ġgreat": 780,
      "urn": 781,
      "sel": 782,
      "ife": 783,
      "ility": 784,
      "Ġway": 785,
      "Ġdec": 786,
      "Ġ19": 787,
      "ting": 788,
      "als": 789,
      "Ġinform": 790,
      "Ġsm": 791,
      "Ġyears": 792,
      "Ġshe": 793,
      "Ġcould": 794,
      "Ġshould": 795,
      "erson": 796,
      "Ġpos": 797,
      "ower": 798,
      "Ġafter": 799,
      "Ġev": 800,
      "ving": 801,
      "Ġwhere": 802,
      "ased": 803,
      "eth": 804,
      "ys": 805,
      "Ġac": 806,
      "Ġrem": 807,
      "Ġeven": 808,
      "Ġent": 809,
      "ec": 810,
      "ool": 811,
      "Ġthen": 812,
      "Ġbest": 813,
      "Ġown": 814,
      "get": 815,
      "olog": 816,
      "ience": 817,
      "Ġinst": 818,
      "ved": 819,
      "ular": 820,
      "Ġfind": 821,
      "ational": 822,
      "stem": 823,
      "erm": 824,
      "ts": 825,
      "aw": 826,
      "ew": 827,
      "ble": 828,
      "oll": 829,
      "Ġset": 830,
      "Ġhigh": 831,
      "Ġstart": 832,
      "velop": 833,
      "ract": 834,
      "Ġrequ": 835,
      "Ġcar": 836,
      "Ġins": 837,
      "Ġhome": 838,
      "Ġnow": 839,
      "Ġloc": 840,
      "ont": 841,
      "uring": 842,
      "Ġsuch": 843,
      "Ġrel": 844,
      "Ġfin": 845,
      "Ġdesign": 846,
      "ath": 847,
      "Ġright": 848,
      "Ġsec": 849,
      "rit": 850,
      "Ġdown": 851,
      "Ġmuch": 852,
      "ward": 853,
      "der": 854,
      "ative": 855,
      "ics": 856,
      "hes": 857,
      "air": 858,
      "Ġbusiness": 859,
      "line": 860,
      "Ġgu": 861,
      "Ġdiffe": 862,
      "ĠIf": 863,
      "Ġav": 864,
      "Ġplay": 865,
      "its": 866,
      "Ġinformation": 867,
      "ty": 868,
      "Ġatt": 869,
      "Ġsaid": 870,
      "Ġday": 871,
      "ĠUn": 872,
      "hip": 873,
      "Ġdon": 874,
      "ener": 875,
      "Ġinte": 876,
      "ject": 877,
      "pect": 878,
      "Ġtake": 879,
      "alth": 880,
      "Ġread": 881,
      "ĠAs": 882,
      "ient": 883,
      "gan": 884,
      "oy": 885,
      "Ġexp": 886,
      "arch": 887,
      "ident": 888,
      "Ġbl": 889,
      "ĠWh": 890,
      "),": 891,
      "Ġmin": 892,
      "Ġbecause": 893,
      "Ġlong": 894,
      "Ġused": 895,
      "Ġtoo": 896,
      "ited": 897,
      "Ġdisc": 898,
      "Ġperson": 899,
      "up": 900,
      "omm": 901,
      "arket": 902,
      "Ġche": 903,
      "chn": 904,
      "Ġfam": 905,
      "io": 906,
      "Ġmon": 907,
      "Ġdevelop": 908,
      "ob": 909,
      "und": 910,
      "Ġsim": 911,
      "ality": 912,
      "ustom": 913,
      "ell": 914,
      "Ġprovid": 915,
      "Ġsystem": 916,
      "Ġcre": 917,
      "ĠRe": 918,
      "ied": 919,
      "Ġprog": 920,
      "Ġbel": 921,
      "Ġbr": 922,
      "In": 923,
      "Ġass": 924,
      "Ġhere": 925,
      "Ġvis": 926,
      "Ġmade": 927,
      "Ġsur": 928,
      "Ġtrans": 929,
      "ove": 930,
      "other": 931,
      "Ġdoes": 932,
      "cy": 933,
      "Ġ6": 934,
      "Ġbefore": 935,
      "Ġ&": 936,
      "Ġpres": 937,
      "chool": 938,
      "Ġdid": 939,
      "rib": 940,
      "Ġthose": 941,
      "Ġshow": 942,
      "ash": 943,
      "Ġbeing": 944,
      "ĠPro": 945,
      "com": 946,
      "Ġcall": 947,
      "Ġnum": 948,
      "ually": 949,
      "ner": 950,
      "Ġworld": 951,
      "Ġend": 952,
      "Ġeas": 953,
      "Ġform": 954,
      "Ġcomple": 955,
      "Ġwee": 956,
      "Ġ$": 957,
      "Ġdet": 958,
      "Ġeach": 959,
      "Ġhand": 960,
      "ix": 961,
      "rest": 962,
      "Ġcur": 963,
      "Ġlife": 964,
      "ork": 965,
      "Ġmed": 966,
      "ake": 967,
      "Ġart": 968,
      "ric": 969,
      "Ġsub": 970,
      "Ġagain": 971,
      "Ġsupport": 972,
      "Ġbo": 973,
      "Ġinter": 974,
      "ĠAn": 975,
      "This": 976,
      "ues": 977,
      "ages": 978,
      "ĠAnd": 979,
      "ata": 980,
      "Ġmem": 981,
      "ĠFor": 982,
      "We": 983,
      "Ġdifferent": 984,
      "Ġlook": 985,
      "arm": 986,
      "Ġcustom": 987,
      "arn": 988,
      "Ġsk": 989,
      "ize": 990,
      "Ġop": 991,
      "ros": 992,
      "ional": 993,
      "ank": 994,
      "ci": 995,
      "Ġadv": 996,
      "ouse": 997,
      "led": 998,
      "way": 999,
      "cept": 1000,
      "ince": 1001,
      "gg": 1002,
      "ives": 1003,
      "Ġwhile": 1004,
      "ines": 1005,
      "kes": 1006,
      "ple": 1007,
      "Ġaround": 1008,
      "az": 1009,
      "Ġpost": 1010,
      "Ġprocess": 1011,
      "olut": 1012,
      "ng": 1013,
      "Ġmarket": 1014,
      "Ġavail": 1015,
      "Ġstr": 1016,
      "de": 1017,
      "Ġcare": 1018,
      "ather": 1019,
      "ason": 1020,
      "Ġcle": 1021,
      "Ġaut": 1022,
      "Ġgra": 1023,
      "ever": 1024,
      "ves": 1025,
      "Ġprof": 1026,
      "ctions": 1027,
      "land": 1028,
      "Ġed": 1029,
      "Ġreally": 1030,
      "ale": 1031,
      "ollow": 1032,
      "Ġfree": 1033,
      "Ġloo": 1034,
      "Ġlast": 1035,
      "lease": 1036,
      "self": 1037,
      "atch": 1038,
      "Ġcommun": 1039,
      "Ġprogram": 1040,
      "Ġret": 1041,
      "Ġser": 1042,
      "ave": 1043,
      "Ġcour": 1044,
      "ins": 1045,
      "Ġtechn": 1046,
      "Ġlead": 1047,
      "Ġsign": 1048,
      "Ġlove": 1049,
      "Ġteam": 1050,
      "Ġchild": 1051,
      "read": 1052,
      "Ġlist": 1053,
      "Ġpur": 1054,
      "Ġplace": 1055,
      "Ġimport": 1056,
      "ness": 1057,
      "pr": 1058,
      "ways": 1059,
      "Ġ10": 1060,
      "Ġfun": 1061,
      "Ġ200": 1062,
      "Ġhim": 1063,
      "Ġext": 1064,
      "ween": 1065,
      "Ġval": 1066,
      "imes": 1067,
      "irect": 1068,
      "Ġfull": 1069,
      "ef": 1070,
      "Ġ7": 1071,
      "Ġtop": 1072,
      "Ġsom": 1073,
      "Ġcount": 1074,
      "Ġusing": 1075,
      "roup": 1076,
      "Ġ8": 1077,
      "Ġsame": 1078,
      "Ġpub": 1079,
      "ten": 1080,
      "Ġthink": 1081,
      "Ġavailable": 1082,
      "ĠAl": 1083,
      "Ġboth": 1084,
      "Ġlar": 1085,
      "oun": 1086,
      "ivers": 1087,
      "Ġ.": 1088,
      "Ġstill": 1089,
      "riend": 1090,
      "Ġvar": 1091,
      "ining": 1092,
      "Ġfeel": 1093,
      "ized": 1094,
      "ĠSh": 1095,
      "Ġservice": 1096,
      "ets": 1097,
      "Ġcompany": 1098,
      "ature": 1099,
      "Ġopt": 1100,
      "Ġplan": 1101,
      "Ġbetween": 1102,
      "ov": 1103,
      "Ġgener": 1104,
      "Ġchar": 1105,
      "Ġty": 1106,
      "view": 1107,
      "Ġpol": 1108,
      "ired": 1109,
      "Ġlot": 1110,
      "Ġappro": 1111,
      "Ġthough": 1112,
      "ology": 1113,
      "Ġhealth": 1114,
      "ĠAr": 1115,
      "Ġfound": 1116,
      "Ġgoing": 1117,
      "Ġide": 1118,
      "Ġbuild": 1119,
      "Ġcor": 1120,
      "Ġfew": 1121,
      "iqu": 1122,
      "ety": 1123,
      "Ġmain": 1124,
      "Ġfollow": 1125,
      "uc": 1126,
      "ĠThey": 1127,
      "ants": 1128,
      "ffect": 1129,
      "Ġrun": 1130,
      "ĠNew": 1131,
      "Ġkeep": 1132,
      "ittle": 1133,
      "less": 1134,
      "Ġexperience": 1135,
      "Ġsmall": 1136,
      "ĠDe": 1137,
      "Ġref": 1138,
      "Ġallow": 1139,
      "ars": 1140,
      "ĠSe": 1141,
      "Ġposs": 1142,
      "Ġoffer": 1143,
      "Ġsl": 1144,
      "ĠBut": 1145,
      "Ġdata": 1146,
      "Ġwater": 1147,
      "Ġresult": 1148,
      "Ġpoint": 1149,
      "Ġpartic": 1150,
      "Ġhapp": 1151,
      "iving": 1152,
      "Ġmonth": 1153,
      "Ġorgan": 1154,
      "Wh": 1155,
      "Ġpat": 1156,
      "Ġob": 1157,
      "ross": 1158,
      "Ġprovide": 1159,
      "ĠCl": 1160,
      "Ġreal": 1161,
      "stand": 1162,
      "ware": 1163,
      "Ġcost": 1164,
      "Ġservices": 1165,
      "Ġalways": 1166,
      "Ġ9": 1167,
      "plo": 1168,
      "Ġcent": 1169,
      "Ġpri": 1170,
      "ms": 1171,
      "Ġopen": 1172,
      "Ġsure": 1173,
      "ah": 1174,
      "bers": 1175,
      "Ġincluding": 1176,
      "ital": 1177,
      "Ġinterest": 1178,
      "Ġmust": 1179,
      "Ġnumber": 1180,
      "ĠThere": 1181,
      "Ġpay": 1182,
      "Ġfamily": 1183,
      "ural": 1184,
      "erg": 1185,
      "Ġwithout": 1186,
      "Ġduring": 1187,
      "000": 1188,
      "aut": 1189,
      "ug": 1190,
      "Ġiss": 1191,
      "Ġthings": 1192,
      "Ġrest": 1193,
      "ically": 1194,
      "ĠSo": 1195,
      "Ġbetter": 1196,
      "ton": 1197,
      "Ġimportant": 1198,
      "Ġschool": 1199,
      "thing": 1200,
      "orth": 1201,
      "Ġfil": 1202,
      "Ġresp": 1203,
      "Ġcome": 1204,
      "Ġdri": 1205,
      "Ġint": 1206,
      "Ġthree": 1207,
      "Ġstand": 1208,
      "ined": 1209,
      "Ġperform": 1210,
      "Ġlittle": 1211,
      "Ġproper": 1212,
      "ĠLe": 1213,
      "Ġmod": 1214,
      "be": 1215,
      "Ġrece": 1216,
      "ield": 1217,
      "ody": 1218,
      "Ġpass": 1219,
      "Ġclass": 1220,
      "Ġconc": 1221,
      "It": 1222,
      "Ġfact": 1223,
      "ists": 1224,
      "Ġve": 1225,
      "ĠAd": 1226,
      "arly": 1227,
      "Ġconf": 1228,
      "Ġspec": 1229,
      "ute": 1230,
      "Ġable": 1231,
      "Ġdef": 1232,
      "Ġonline": 1233,
      "ery": 1234,
      "Ġwebs": 1235,
      "els": 1236,
      "Ġfriend": 1237,
      "If": 1238,
      "Ġquest": 1239,
      "man": 1240,
      "ished": 1241,
      "alk": 1242,
      "ething": 1243,
      "Ġlevel": 1244,
      "Ġcontin": 1245,
      "co": 1246,
      "Ġsay": 1247,
      "ling": 1248,
      "Ġdist": 1249,
      "Ġtry": 1250,
      "meric": 1251,
      "ared": 1252,
      "ier": 1253,
      "Ġspecial": 1254,
      "ploy": 1255,
      "Ġproble": 1256,
      "ĠHow": 1257,
      "Ġbra": 1258,
      "ention": 1259,
      "Ġnext": 1260,
      "Ġincre": 1261,
      "Ġarea": 1262,
      "ccess": 1263,
      "ien": 1264,
      "Ġgive": 1265,
      "Ġaccess": 1266,
      "uss": 1267,
      "Ġgroup": 1268,
      "ately": 1269,
      "con": 1270,
      "ĠTe": 1271,
      "Ġlight": 1272,
      "Ġcert": 1273,
      "Ġstate": 1274,
      "reen": 1275,
      "orts": 1276,
      "ients": 1277,
      "ock": 1278,
      "Ġtri": 1279,
      "Ġwithin": 1280,
      "oney": 1281,
      "Ġmight": 1282,
      "Ġdi": 1283,
      "Ġsince": 1284,
      "Ġquality": 1285,
      "Ġinf": 1286,
      "ĠCom": 1287,
      "Ġput": 1288,
      "Ġopp": 1289,
      "Ġorder": 1290,
      "au": 1291,
      "dition": 1292,
      "vern": 1293,
      "ĠBe": 1294,
      "Ġsomething": 1295,
      "ruct": 1296,
      "me": 1297,
      "Ġeng": 1298,
      "ider": 1299,
      "Ġanother": 1300,
      "Ġbook": 1301,
      "Ġblo": 1302,
      "rence": 1303,
      "Ġlet": 1304,
      "Ġwr": 1305,
      "att": 1306,
      "Ġcurrent": 1307,
      "Ġbig": 1308,
      "Ġrese": 1309,
      "load": 1310,
      "Ġpower": 1311,
      "ĠPl": 1312,
      "ump": 1313,
      "ential": 1314,
      "ral": 1315,
      "Ġoper": 1316,
      "Ġgrow": 1317,
      "ames": 1318,
      "Ġphot": 1319,
      "ĠInd": 1320,
      "Ġhard": 1321,
      "Ġmus": 1322,
      "ior": 1323,
      "Ġdirect": 1324,
      "ĠEx": 1325,
      "Ġcontro": 1326,
      "orn": 1327,
      "Ġinvest": 1328,
      "pend": 1329,
      "Ġest": 1330,
      "eng": 1331,
      "Ġold": 1332,
      "ĠAmeric": 1333,
      "Ġprofess": 1334,
      "ration": 1335,
      "ortun": 1336,
      "Ġaddition": 1337,
      "Ġsecond": 1338,
      "rist": 1339,
      "Ġi": 1340,
      "Ġapplic": 1341,
      "Ġless": 1342,
      "Ġsite": 1343,
      "Ġequ": 1344,
      "oot": 1345,
      "iversity": 1346,
      "Ġdays": 1347,
      "ffic": 1348,
      "Ġcr": 1349,
      "Ġroom": 1350,
      "ards": 1351,
      "ours": 1352,
      "ivid": 1353,
      "Ġhead": 1354,
      "Ġbuy": 1355,
      "Ġweek": 1356,
      "Ġtest": 1357,
      "Ġproducts": 1358,
      "ision": 1359,
      "Ġvisit": 1360,
      "Ġworking": 1361,
      "Ġsit": 1362,
      "ĠOn": 1363,
      "ĠQ": 1364,
      "Ġpract": 1365,
      "Ġprote": 1366,
      "joy": 1367,
      "ense": 1368,
      "Ġnever": 1369,
      "ĠAll": 1370,
      "Ġbro": 1371,
      "ĠShe": 1372,
      "ium": 1373,
      "ified": 1374,
      "Ġgl": 1375,
      "Ġ20": 1376,
      "ted": 1377,
      "Ġmeet": 1378,
      "ateg": 1379,
      "ases": 1380,
      "here": 1381,
      "Ġjo": 1382,
      "Ġben": 1383,
      "Ġtoday": 1384,
      "tain": 1385,
      "Ġlooking": 1386,
      "Ġfac": 1387,
      "Ġwebsite": 1388,
      "Ġview": 1389,
      "gin": 1390,
      "oss": 1391,
      "Ġintern": 1392,
      "Ġprom": 1393,
      "Ġsal": 1394,
      "Ġel": 1395,
      "ator": 1396,
      "Ġgot": 1397,
      "Ġlocal": 1398,
      "ently": 1399,
      "Ġstudents": 1400,
      "cing": 1401,
      "Ġ'": 1402,
      "Ġproject": 1403,
      "ote": 1404,
      "Ġunderstand": 1405,
      ".\"": 1406,
      "You": 1407,
      "Ġgame": 1408,
      "ps": 1409,
      "Ġindust": 1410,
      "Ġgr": 1411,
      "Ġmaking": 1412,
      "por": 1413,
      "Ġneeds": 1414,
      "!!": 1415,
      "Ġbre": 1416,
      "Ġlarge": 1417,
      "ems": 1418,
      "agement": 1419,
      "Ġfood": 1420,
      "Ġprev": 1421,
      "ĠSp": 1422,
      "Ġpublic": 1423,
      "Ġeffect": 1424,
      "iron": 1425,
      "room": 1426,
      "Ġair": 1427,
      "ĠIs": 1428,
      "Ġpop": 1429,
      "aterial": 1430,
      "Ġpresent": 1431,
      "orm": 1432,
      "ability": 1433,
      "ieve": 1434,
      "ĠSc": 1435,
      "Ġmet": 1436,
      "Ġunt": 1437,
      "ills": 1438,
      "Ġchange": 1439,
      "Ġcheck": 1440,
      "pping": 1441,
      "Ġcomplete": 1442,
      "Ġproduct": 1443,
      "Ġcap": 1444,
      "ER": 1445,
      "ats": 1446,
      "Ġeasy": 1447,
      "Ġ12": 1448,
      "Ġwin": 1449,
      "Ġevent": 1450,
      "ron": 1451,
      "ax": 1452,
      "Ġchildren": 1453,
      "lection": 1454,
      "inal": 1455,
      "ample": 1456,
      "Ġimpro": 1457,
      "ission": 1458,
      "ĠPh": 1459,
      "Ġca": 1460,
      "ĠZ": 1461,
      "Ġchang": 1462,
      "Ġsuccess": 1463,
      "ĠâĢĺ": 1464,
      "aster": 1465,
      "Ġconst": 1466,
      "Ġmoney": 1467,
      "Ġtru": 1468,
      "ird": 1469,
      "ised": 1470,
      "Ġcourse": 1471,
      "ĠCon": 1472,
      "illion": 1473,
      "Ġdev": 1474,
      "Ġann": 1475,
      "ify": 1476,
      "Ġconne": 1477,
      "Ġterm": 1478,
      "Ġcreat": 1479,
      "atter": 1480,
      "ope": 1481,
      "pos": 1482,
      "Ġlearn": 1483,
      "ids": 1484,
      "50": 1485,
      "Ġactiv": 1486,
      "ann": 1487,
      "ĠTo": 1488,
      "Ġfr": 1489,
      "the": 1490,
      "Ġlaw": 1491,
      "ism": 1492,
      "Ġcase": 1493,
      "itions": 1494,
      "work": 1495,
      "ode": 1496,
      "ique": 1497,
      "tend": 1498,
      "Ġalong": 1499,
      "Ġemploy": 1500,
      "ains": 1501,
      "Ġenjoy": 1502,
      "10": 1503,
      "Ġbas": 1504,
      "Ġhouse": 1505,
      "As": 1506,
      "port": 1507,
      "bo": 1508,
      "Ġcontact": 1509,
      "med": 1510,
      "Ġ18": 1511,
      "Ġuntil": 1512,
      "ret": 1513,
      "ably": 1514,
      "outh": 1515,
      "Ġdem": 1516,
      "cent": 1517,
      "Ġname": 1518,
      "Ġtoget": 1519,
      ".,": 1520,
      "Ġreport": 1521,
      "Ġtogether": 1522,
      "of": 1523,
      "Ġpossible": 1524,
      "Ġaway": 1525,
      "ĠCol": 1526,
      "ering": 1527,
      "Ġleg": 1528,
      "ush": 1529,
      "ization": 1530,
      "Ġmaterial": 1531,
      "Ġoften": 1532,
      "utes": 1533,
      "min": 1534,
      "ĠUS": 1535,
      "cl": 1536,
      "ries": 1537,
      "ĠFr": 1538,
      "ividual": 1539,
      "Ġpain": 1540,
      "ury": 1541,
      "ott": 1542,
      "Ġturn": 1543,
      "pped": 1544,
      "aring": 1545,
      "ogra": 1546,
      "Ġcreate": 1547,
      "ĠAt": 1548,
      "ember": 1549,
      "part": 1550,
      "ĠWith": 1551,
      "ered": 1552,
      "Ġpar": 1553,
      "Ġtreat": 1554,
      "Ġbeaut": 1555,
      "Ġsing": 1556,
      "Ġvide": 1557,
      "ex": 1558,
      "Ġdetail": 1559,
      "ocus": 1560,
      "Ġpersonal": 1561,
      "ream": 1562,
      "olution": 1563,
      "icle": 1564,
      "Ġhaving": 1565,
      "Ġhist": 1566,
      "ĠRes": 1567,
      "ories": 1568,
      "Ġwhy": 1569,
      "Ġresearch": 1570,
      "Ġagainst": 1571,
      "ern": 1572,
      "Ġsoft": 1573,
      "Ġelect": 1574,
      "Ġpa": 1575,
      "itive": 1576,
      "ĠBl": 1577,
      "ĠChrist": 1578,
      "iven": 1579,
      "ising": 1580,
      "Ġbased": 1581,
      "Ġdra": 1582,
      "ĠMan": 1583,
      "Ġask": 1584,
      "Ġhum": 1585,
      "Ġprice": 1586,
      "Ġinclude": 1587,
      "lish": 1588,
      "Ġaccount": 1589,
      "ows": 1590,
      "arent": 1591,
      "ina": 1592,
      "Ġpast": 1593,
      "soci": 1594,
      "Ġside": 1595,
      "atures": 1596,
      "Ġrequire": 1597,
      "ĠOr": 1598,
      "Ġla": 1599,
      "Ġperfect": 1600,
      "Ġtimes": 1601,
      "Ġpage": 1602,
      "Ġpot": 1603,
      "Ġindividual": 1604,
      "let": 1605,
      "Ġcommunity": 1606,
      "Ġkind": 1607,
      "ĠWhen": 1608,
      "side": 1609,
      "ived": 1610,
      "ĠCan": 1611,
      "Ġbenef": 1612,
      "Ġbeh": 1613,
      "Ġgovern": 1614,
      "ĠCent": 1615,
      "pecial": 1616,
      "Ġrecord": 1617,
      "Ġmult": 1618,
      "ding": 1619,
      "Ġmeans": 1620,
      "viron": 1621,
      "ger": 1622,
      "ĠJo": 1623,
      "ination": 1624,
      "ney": 1625,
      "ĠComm": 1626,
      "yle": 1627,
      "Ġtem": 1628,
      "Ġfour": 1629,
      "Ġmar": 1630,
      "hor": 1631,
      "ĠThat": 1632,
      "Ġmembers": 1633,
      "ik": 1634,
      ",âĢĿ": 1635,
      "cu": 1636,
      "Ġworks": 1637,
      "omen": 1638,
      "Ġline": 1639,
      "Ġcontrol": 1640,
      "ency": 1641,
      "Ġbecome": 1642,
      "Ġexpect": 1643,
      "Ġ0": 1644,
      "ured": 1645,
      "Ġlim": 1646,
      "âĢľ": 1647,
      "fer": 1648,
      "Ġclo": 1649,
      "Ġmakes": 1650,
      "Ġdone": 1651,
      "oice": 1652,
      "ready": 1653,
      "Ġwrit": 1654,
      "...": 1655,
      "Ġcou": 1656,
      "ead": 1657,
      "Ġes": 1658,
      "Ġsever": 1659,
      "ken": 1660,
      "Ġspecific": 1661,
      "Ġword": 1662,
      "âĢ¦": 1663,
      "Ġsw": 1664,
      "ĠUniversity": 1665,
      "Ġopportun": 1666,
      "ĠGod": 1667,
      "Ġfocus": 1668,
      "jor": 1669,
      "Ġquick": 1670,
      "iting": 1671,
      "Ġthing": 1672,
      "anies": 1673,
      "ĠWhat": 1674,
      "Ġvari": 1675,
      "ffe": 1676,
      "ley": 1677,
      "aking": 1678,
      "lement": 1679,
      "Ġcomes": 1680,
      "ĠOur": 1681,
      "Ġens": 1682,
      "Ġdevelopment": 1683,
      "rop": 1684,
      "Ġmove": 1685,
      "Ġsol": 1686,
      "br": 1687,
      "Ġeduc": 1688,
      "Ġtool": 1689,
      "ript": 1690,
      "lling": 1691,
      "Ġenough": 1692,
      "Ġnight": 1693,
      "uture": 1694,
      "Ġreview": 1695,
      "Ġlow": 1696,
      "Ġocc": 1697,
      "Ġtre": 1698,
      "ands": 1699,
      "IN": 1700,
      "ee": 1701,
      "Ġseveral": 1702,
      "Ġalready": 1703,
      "Ġtyp": 1704,
      "20": 1705,
      "Ġnet": 1706,
      "Ġcertain": 1707,
      "Ġhot": 1708,
      "Ġ15": 1709,
      "Ġleft": 1710,
      "Ġbody": 1711,
      "ĠTr": 1712,
      "Ġkey": 1713,
      "aim": 1714,
      "Ġshort": 1715,
      "Ġothers": 1716,
      "ane": 1717,
      "Ġlive": 1718,
      "uck": 1719,
      "Ġacross": 1720,
      "oint": 1721,
      "Ġnon": 1722,
      "Ġjob": 1723,
      "anks": 1724,
      "Ġclean": 1725,
      "Ġspace": 1726,
      "ĠThese": 1727,
      "Ġsocial": 1728,
      "Ġbelow": 1729,
      "ĠEng": 1730,
      "urs": 1731,
      "aff": 1732,
      "urity": 1733,
      "'re": 1734,
      "Ġconsider": 1735,
      "Ġcover": 1736,
      "Ġanal": 1737,
      "uro": 1738,
      "Ġhig": 1739,
      "ĠâĢĶ": 1740,
      "Ġredu": 1741,
      "Ġpurch": 1742,
      "ĠCo": 1743,
      "Ġet": 1744,
      "Ġgetting": 1745,
      "Ġinstall": 1746,
      "vironment": 1747,
      "30": 1748,
      "Ġce": 1749,
      "Ġshare": 1750,
      "conom": 1751,
      "ethod": 1752,
      "ai": 1753,
      "Ġever": 1754,
      "Ġvers": 1755,
      "Ġcountry": 1756,
      "Ġfav": 1757,
      "Ġhold": 1758,
      "ĠNo": 1759,
      "by": 1760,
      "Ġoffers": 1761,
      "Ġpack": 1762,
      "Ġfund": 1763,
      "oring": 1764,
      "Ġ30": 1765,
      "urther": 1766,
      "Ġexample": 1767,
      "ither": 1768,
      "Ġfar": 1769,
      "Ġmajor": 1770,
      "Ġbit": 1771,
      "Ġcompanies": 1772,
      "Ġcompet": 1773,
      "ches": 1774,
      "Ġrange": 1775,
      "Ġorig": 1776,
      "Ġfuture": 1777,
      "Ġmusic": 1778,
      "jects": 1779,
      "ged": 1780,
      "Ġdeli": 1781,
      "ograph": 1782,
      "ances": 1783,
      "Ġparticular": 1784,
      "Ġindustry": 1785,
      "ording": 1786,
      "Ġfore": 1787,
      "Ġexpl": 1788,
      "Ġmind": 1789,
      "âĢĶ": 1790,
      "ommend": 1791,
      "alf": 1792,
      "What": 1793,
      "par": 1794,
      "ots": 1795,
      "Ġdoing": 1796,
      "ully": 1797,
      "inc": 1798,
      "Ġboo": 1799,
      "ides": 1800,
      "wards": 1801,
      "ES": 1802,
      "ĠMy": 1803,
      "Ġstep": 1804,
      "Ġdeal": 1805,
      "Ġvalue": 1806,
      "Ġleast": 1807,
      "err": 1808,
      "For": 1809,
      "Ġmean": 1810,
      "ference": 1811,
      "Ġpriv": 1812,
      "Ġonce": 1813,
      "Ġcity": 1814,
      "Ġchoo": 1815,
      "most": 1816,
      "ift": 1817,
      "Ġbring": 1818,
      "Ġcamp": 1819,
      "ribut": 1820,
      "iful": 1821,
      "lf": 1822,
      "Ġcal": 1823,
      "Ġemail": 1824,
      "ners": 1825,
      "Ġident": 1826,
      "osed": 1827,
      "ilt": 1828,
      "ON": 1829,
      "Ġhours": 1830,
      "ctor": 1831,
      "Ġstarted": 1832,
      "ĠSu": 1833,
      "Ġseason": 1834,
      "Ġstory": 1835,
      "ĠMar": 1836,
      "ĠFl": 1837,
      "Ġcomb": 1838,
      "urance": 1839,
      "Ġinvol": 1840,
      "atic": 1841,
      "ilities": 1842,
      "rodu": 1843,
      "'m": 1844,
      "Ġrecommend": 1845,
      "Ġstudy": 1846,
      "cle": 1847,
      "ĠAm": 1848,
      "ones": 1849,
      "Ġactually": 1850,
      "19": 1851,
      "Ġcalled": 1852,
      "Ġproblem": 1853,
      "Ġbed": 1854,
      "Ġcustomers": 1855,
      "Ġwind": 1856,
      "Ġbrand": 1857,
      "Ġreason": 1858,
      "Ġfield": 1859,
      "Ġfeatures": 1860,
      "Ġbuilding": 1861,
      "Ġvol": 1862,
      "Ġreturn": 1863,
      "Ġris": 1864,
      "aces": 1865,
      "ĠApp": 1866,
      "'ve": 1867,
      "He": 1868,
      "Ġcut": 1869,
      "cell": 1870,
      "Ġsum": 1871,
      "ĠHowever": 1872,
      "ĠDo": 1873,
      "Ġaddress": 1874,
      "Ġmethod": 1875,
      "ource": 1876,
      "fort": 1877,
      "ape": 1878,
      "Ġtechnology": 1879,
      "There": 1880,
      "ĠCar": 1881,
      "Ġrespons": 1882,
      "AT": 1883,
      "Ġcontent": 1884,
      "Ġchall": 1885,
      "ources": 1886,
      "Ġclose": 1887,
      "Ġminutes": 1888,
      "ĠMay": 1889,
      "Ġstrong": 1890,
      "Ġ2018": 1891,
      "ster": 1892,
      "Ġprofessional": 1893,
      "bal": 1894,
      "Ġtraining": 1895,
      "Ġproperty": 1896,
      "Ġvideo": 1897,
      "Ġdidn": 1898,
      "Ġfriends": 1899,
      "Ġamount": 1900,
      "'ll": 1901,
      "Ġz": 1902,
      "Ġ11": 1903,
      "ĠIntern": 1904,
      "Ġess": 1905,
      "arning": 1906,
      "Ġste": 1907,
      "Ġexc": 1908,
      "go": 1909,
      "Ġdownload": 1910,
      "Ġmil": 1911,
      "Ġpict": 1912,
      "Ġsuper": 1913,
      "atural": 1914,
      "ino": 1915,
      "ford": 1916,
      "resent": 1917,
      "Ġtax": 1918,
      "Ġdiscuss": 1919,
      "Ġpie": 1920,
      "Ġquestions": 1921,
      "Ġabove": 1922,
      "ĠÂ": 1923,
      "Ġwa": 1924,
      "Ġsearch": 1925,
      "ĠServ": 1926,
      "ply": 1927,
      "uf": 1928,
      "Ġenvironment": 1929,
      "Ġplease": 1930,
      "lished": 1931,
      "Ġtype": 1932,
      "ĠX": 1933,
      "Ġstay": 1934,
      "not": 1935,
      "Ġheart": 1936,
      "Ġresults": 1937,
      "Ġbegin": 1938,
      "Ġ,": 1939,
      "Ġcharact": 1940,
      "icy": 1941,
      "Ġoffic": 1942,
      "ĠSy": 1943,
      "ĠTra": 1944,
      "ister": 1945,
      "Ġeverything": 1946,
      "ips": 1947,
      "Ġdoesn": 1948,
      "Ġgovernment": 1949,
      "ledge": 1950,
      "ancial": 1951,
      "enn": 1952,
      "AN": 1953,
      "Ġweb": 1954,
      "Ġknown": 1955,
      "Ġmonths": 1956,
      "Ġdr": 1957,
      "over": 1958,
      "Ġyoung": 1959,
      "iod": 1960,
      "sw": 1961,
      "Ġgiven": 1962,
      "unch": 1963,
      "rap": 1964,
      "ulation": 1965,
      "ĠInst": 1966,
      "sh": 1967,
      "Ġtot": 1968,
      "light": 1969,
      "Ġport": 1970,
      "ched": 1971,
      "ĠComp": 1972,
      "Ġprovides": 1973,
      "ergy": 1974,
      "Ġsound": 1975,
      "Ġsimple": 1976,
      "Ġmom": 1977,
      "crib": 1978,
      "ians": 1979,
      "ĠPr": 1980,
      "cks": 1981,
      "Ġthought": 1982,
      "Ġsingle": 1983,
      "Ġenc": 1984,
      "pecially": 1985,
      "ĠWor": 1986,
      "Ġmanagement": 1987,
      "Ġmillion": 1988,
      "cted": 1989,
      "Ġwon": 1990,
      "Ġmess": 1991,
      "St": 1992,
      "Ġrepl": 1993,
      "app": 1994,
      "Ġcomput": 1995,
      "Ġearly": 1996,
      "Ġcred": 1997,
      "Ġrele": 1998,
      "wh": 1999,
      "Ġmot": 2000,
      "Ġwond": 2001,
      "Ġmen": 2002,
      "Ġey": 2003,
      "osp": 2004,
      "An": 2005,
      "Ġvarious": 2006,
      "ĠRo": 2007,
      "Ġyet": 2008,
      "Ġupd": 2009,
      "Ġpress": 2010,
      "idd": 2011,
      ",\"": 2012,
      "Ġbar": 2013,
      "ĠEn": 2014,
      "Ġtas": 2015,
      "12": 2016,
      "ensive": 2017,
      "Ġhope": 2018,
      "Ġtravel": 2019,
      "AR": 2020,
      "ĠGu": 2021,
      "hers": 2022,
      "Ġflo": 2023,
      "Ġrequired": 2024,
      "Ġdiff": 2025,
      "ring": 2026,
      "ĠCont": 2027,
      "Ġfollowing": 2028,
      "Ġimprove": 2029,
      "Ġcame": 2030,
      "Ġcult": 2031,
      "Ġeconom": 2032,
      "acy": 2033,
      "When": 2034,
      "resh": 2035,
      "Ġant": 2036,
      "che": 2037,
      "ges": 2038,
      "hn": 2039,
      "Ġsize": 2040,
      "How": 2041,
      "Ġ100": 2042,
      "Ġpercent": 2043,
      "Ġwhether": 2044,
      "Ġcard": 2045,
      "ibility": 2046,
      "Ġtook": 2047,
      "Ġissues": 2048,
      "Ġcra": 2049,
      "mber": 2050,
      "Ġappear": 2051,
      "Ġareas": 2052,
      "ĠMed": 2053,
      "asing": 2054,
      "fully": 2055,
      "tt": 2056,
      "irm": 2057,
      "Ġexam": 2058,
      "illed": 2059,
      "Ġhappen": 2060,
      "une": 2061,
      "Ġsays": 2062,
      "iday": 2063,
      "idence": 2064,
      "uff": 2065,
      "Ġenergy": 2066,
      "mb": 2067,
      "Ġdue": 2068,
      "ume": 2069,
      "ental": 2070,
      "Ġbeautiful": 2071,
      "Ġtell": 2072,
      "Ġperformance": 2073,
      "cript": 2074,
      "Ġunique": 2075,
      "201": 2076,
      "Ġ199": 2077,
      "augh": 2078,
      "Ġmeas": 2079,
      "ĠAmerican": 2080,
      "Ġwhole": 2081,
      "ufact": 2082,
      "Ġfurther": 2083,
      "cer": 2084,
      "Ġcustomer": 2085,
      "Ġcommon": 2086,
      "ĠBo": 2087,
      "ĠOne": 2088,
      "vert": 2089,
      "Ġsomeone": 2090,
      "Ġexperien": 2091,
      "Ġmedia": 2092,
      "Ġidea": 2093,
      "book": 2094,
      "gs": 2095,
      "Ġmanag": 2096,
      "ogn": 2097,
      "Ġassist": 2098,
      "Ġaud": 2099,
      "Ġliving": 2100,
      "Ġdesigned": 2101,
      "abor": 2102,
      "Ġperiod": 2103,
      "On": 2104,
      "Ġclaim": 2105,
      "Ġstaff": 2106,
      "Ġele": 2107,
      "icult": 2108,
      "though": 2109,
      "ww": 2110,
      "Ðµ": 2111,
      "Ġstrateg": 2112,
      "ĠEuro": 2113,
      "Ġtable": 2114,
      "Ġincludes": 2115,
      "Ġfre": 2116,
      "ony": 2117,
      "Ġauthor": 2118,
      "ites": 2119,
      "Ġdig": 2120,
      "omes": 2121,
      "ggest": 2122,
      "ruction": 2123,
      "Ġseen": 2124,
      "xim": 2125,
      "Ġlater": 2126,
      "Ġdam": 2127,
      "Ġnear": 2128,
      "ication": 2129,
      "aps": 2130,
      "Ġnews": 2131,
      "eral": 2132,
      "Ġeffective": 2133,
      "Ġprovided": 2134,
      "rict": 2135,
      "Ġtaking": 2136,
      "Ġamong": 2137,
      "ĠUnited": 2138,
      "Ġselect": 2139,
      "lege": 2140,
      "play": 2141,
      "Ġparticip": 2142,
      "AS": 2143,
      "Ġ16": 2144,
      "Ġphys": 2145,
      "ued": 2146,
      "Ġnecess": 2147,
      "urch": 2148,
      "Ġsoftware": 2149,
      "Ġrelations": 2150,
      "Ġtext": 2151,
      "Ġage": 2152,
      "ided": 2153,
      "Ġensure": 2154,
      "reet": 2155,
      "ored": 2156,
      "Ġprob": 2157,
      "Ġdocu": 2158,
      "Ġhost": 2159,
      "gr": 2160,
      "Ġtal": 2161,
      "yl": 2162,
      "Ġprint": 2163,
      "Ġwomen": 2164,
      "Ġneeded": 2165,
      "Ġ/": 2166,
      "Ġeither": 2167,
      "Ġentire": 2168,
      "ained": 2169,
      "ĠSte": 2170,
      "ĠFe": 2171,
      "ables": 2172,
      "Ġeff": 2173,
      "Ġmach": 2174,
      "Ġengine": 2175,
      "Ġprep": 2176,
      "Ġfront": 2177,
      "ification": 2178,
      "Ġbelieve": 2179,
      "ene": 2180,
      "Ġchoose": 2181,
      "Ġoffice": 2182,
      "ls": 2183,
      "Ġsignific": 2184,
      "So": 2185,
      "Ġsuggest": 2186,
      "ĠChe": 2187,
      "OR": 2188,
      "selves": 2189,
      "Ġespecially": 2190,
      "nov": 2191,
      "Ġcond": 2192,
      "Ġapplication": 2193,
      "Ġ14": 2194,
      "Ġoptions": 2195,
      "Ġhuman": 2196,
      "hing": 2197,
      "Ġquite": 2198,
      "Ġpotential": 2199,
      "Ð¾": 2200,
      "come": 2201,
      "Ġsn": 2202,
      "itted": 2203,
      "Ġparent": 2204,
      "Ġextra": 2205,
      "Ġwent": 2206,
      "Ġsimply": 2207,
      "ĠRep": 2208,
      "Ġach": 2209,
      "aur": 2210,
      "lex": 2211,
      "astic": 2212,
      "ili": 2213,
      "rew": 2214,
      "Ġglo": 2215,
      "Ġhistory": 2216,
      "nam": 2217,
      "Ġcomfort": 2218,
      "Ġrequest": 2219,
      "pro": 2220,
      "Ġspend": 2221,
      "ĠYour": 2222,
      "Ġfunction": 2223,
      "Ġland": 2224,
      "irt": 2225,
      "aching": 2226,
      "Ġphone": 2227,
      "iously": 2228,
      "af": 2229,
      "Ġseries": 2230,
      "imate": 2231,
      "Ġetc": 2232,
      "Ġcir": 2233,
      "Ġfinancial": 2234,
      "Ġmag": 2235,
      "gra": 2236,
      "Ġoil": 2237,
      "11": 2238,
      "Ġdifficult": 2239,
      "Ġsystems": 2240,
      "inking": 2241,
      "Ġ2017": 2242,
      "ler": 2243,
      "Ġface": 2244,
      "Ġexist": 2245,
      "Ġmoder": 2246,
      "Ġwide": 2247,
      "Ġyourself": 2248,
      "ĠEurope": 2249,
      "Ġfive": 2250,
      "itc": 2251,
      "Ġalmost": 2252,
      "Ġknowledge": 2253,
      "Ġquestion": 2254,
      "Ġeveryone": 2255,
      "ilar": 2256,
      "uation": 2257,
      "Ġideas": 2258,
      "ED": 2259,
      "Ġclear": 2260,
      "Ġmiss": 2261,
      "ops": 2262,
      "ĠDes": 2263,
      "Ġwall": 2264,
      "Ġnatural": 2265,
      "ators": 2266,
      "Ġdeterm": 2267,
      "Ġhy": 2268,
      "Ġlikely": 2269,
      "Ġinit": 2270,
      "Ġ24": 2271,
      "Ġbreak": 2272,
      "Ġfavor": 2273,
      "gle": 2274,
      "Ġself": 2275,
      "azing": 2276,
      "Ġdou": 2277,
      "ires": 2278,
      "gest": 2279,
      "Ġ[": 2280,
      "Ġhalf": 2281,
      "Ġhowever": 2282,
      "ĠNe": 2283,
      "Ġtour": 2284,
      "Ġanything": 2285,
      "Ġrepresent": 2286,
      "Ġevents": 2287,
      "Ġansw": 2288,
      "son": 2289,
      "ees": 2290,
      "Ġproblems": 2291,
      "Ġways": 2292,
      "ief": 2293,
      "Ġposition": 2294,
      "Ġpopular": 2295,
      "Ġstyle": 2296,
      "Ġveh": 2297,
      "ises": 2298,
      "Ġpan": 2299,
      "ibr": 2300,
      "oid": 2301,
      "Ġagree": 2302,
      "arr": 2303,
      "Ġsoon": 2304,
      "ĠCal": 2305,
      "Ġcolor": 2306,
      "ĠSchool": 2307,
      "ĠCity": 2308,
      "Ġinsurance": 2309,
      "Ġfit": 2310,
      "Ġred": 2311,
      "face": 2312,
      "Ġadded": 2313,
      "Ġautom": 2314,
      "Ġsignificant": 2315,
      "Ġusers": 2316,
      "Ġabs": 2317,
      "Ġcreated": 2318,
      "Ġissue": 2319,
      "EN": 2320,
      "Ġcrit": 2321,
      "Ġmanufact": 2322,
      "angu": 2323,
      "Ġgames": 2324,
      "Ġregard": 2325,
      "Ġaccept": 2326,
      "Ġwriting": 2327,
      "Ġsecurity": 2328,
      "Ġstruct": 2329,
      "Ġfall": 2330,
      "ĠAfter": 2331,
      "Ġclients": 2332,
      "Ġwatch": 2333,
      "Ġ25": 2334,
      "ipment": 2335,
      "âĢĵ": 2336,
      "ĠCount": 2337,
      "Ġthird": 2338,
      "rown": 2339,
      "itch": 2340,
      "back": 2341,
      "Ġmodel": 2342,
      "reme": 2343,
      "Ġdeb": 2344,
      "aining": 2345,
      "Ġmor": 2346,
      "etimes": 2347,
      "ĠMe": 2348,
      "Ġtaken": 2349,
      "anced": 2350,
      "ze": 2351,
      "Ġpick": 2352,
      "mm": 2353,
      "Ġwhite": 2354,
      "time": 2355,
      "Ġago": 2356,
      "Ġimpact": 2357,
      "Ġreceive": 2358,
      "Ġ13": 2359,
      "Ġtrack": 2360,
      "new": 2361,
      ".âĢĿ": 2362,
      "ĠMin": 2363,
      "pper": 2364,
      "Ġdetails": 2365,
      "Ġlearning": 2366,
      "Ġ17": 2367,
      "ok": 2368,
      "Ġskin": 2369,
      "Ġfail": 2370,
      "Ġfast": 2371,
      "Ġ50": 2372,
      "ĠState": 2373,
      "val": 2374,
      "Ġseem": 2375,
      "Ġforward": 2376,
      "uge": 2377,
      "ĠAust": 2378,
      "Ġincrease": 2379,
      "Ġblack": 2380,
      "Ġrelationship": 2381,
      "olutions": 2382,
      "Ġrisk": 2383,
      "ille": 2384,
      "Ġcoll": 2385,
      "iple": 2386,
      "Ġchanges": 2387,
      "Ġuser": 2388,
      "iver": 2389,
      "opy": 2390,
      "Ġsend": 2391,
      "Ġready": 2392,
      "Ġeducation": 2393,
      "Ġassoci": 2394,
      "Ġsafe": 2395,
      "ĠSouth": 2396,
      "Ġfeature": 2397,
      "Ġlay": 2398,
      "elt": 2399,
      "Ġpaper": 2400,
      "ung": 2401,
      "icro": 2402,
      "put": 2403,
      "Ġthroughout": 2404,
      "ĠJohn": 2405,
      "ights": 2406,
      "Ġfire": 2407,
      "To": 2408,
      "Ġopportunity": 2409,
      "ball": 2410,
      "Ġsho": 2411,
      "Ġut": 2412,
      "Ġbad": 2413,
      "Ġusually": 2414,
      "Ġcell": 2415,
      "Ġhigher": 2416,
      "Ġestab": 2417,
      "Ġ2016": 2418,
      "Ġbox": 2419,
      "Ġskills": 2420,
      "Ġrate": 2421,
      "Ġwonder": 2422,
      "itchen": 2423,
      "Ġstra": 2424,
      "Ġtreatment": 2425,
      "Ġroad": 2426,
      "Ġ2019": 2427,
      "Ġkids": 2428,
      "Ġdepend": 2429,
      "Ġconsum": 2430,
      "Ġtakes": 2431,
      "ĠNot": 2432,
      "Our": 2433,
      "where": 2434,
      "AL": 2435,
      "Ġregular": 2436,
      "atur": 2437,
      "80": 2438,
      "Ġdate": 2439,
      "ux": 2440,
      "medi": 2441,
      "Ġfoot": 2442,
      "IS": 2443,
      "Ġlink": 2444,
      "ĠGra": 2445,
      "15": 2446,
      "do": 2447,
      "Ġprojects": 2448,
      "Ġcoming": 2449,
      "Ġlat": 2450,
      "IT": 2451,
      "Ġda": 2452,
      "icated": 2453,
      "ĠSec": 2454,
      "Ġmatter": 2455,
      "ried": 2456,
      "ĠNational": 2457,
      "Ġtradition": 2458,
      "Ġdel": 2459,
      "Ġsales": 2460,
      "apt": 2461,
      "Ġsent": 2462,
      "Ġpractice": 2463,
      "ĠÐ": 2464,
      "Ġstore": 2465,
      "Ġoutside": 2466,
      "Ġexcell": 2467,
      "Ġadditional": 2468,
      "Ġtou": 2469,
      "vent": 2470,
      "Ġelse": 2471,
      "ha": 2472,
      "Ġeasily": 2473,
      "verage": 2474,
      "Ġrather": 2475,
      "eter": 2476,
      "IC": 2477,
      "Ġcurrently": 2478,
      "Ġjour": 2479,
      "Ġparty": 2480,
      "Ġtrying": 2481,
      "Ġtalk": 2482,
      "ĠAg": 2483,
      "ĠPart": 2484,
      "Ġdefin": 2485,
      "Ġlocated": 2486,
      "Ġinsp": 2487,
      "ĠNorth": 2488,
      "Ġcorre": 2489,
      "minist": 2490,
      "umb": 2491,
      "Ġpret": 2492,
      "ules": 2493,
      "Ġoriginal": 2494,
      "ival": 2495,
      "used": 2496,
      "Ġcontinue": 2497,
      "Ġcoun": 2498,
      "ĠGo": 2499,
      "empt": 2500,
      "ĠBr": 2501,
      "Ġblog": 2502,
      "Ch": 2503,
      "Ġnice": 2504,
      "Ġprivate": 2505,
      "Ġmob": 2506,
      "Ġwalk": 2507,
      "itut": 2508,
      "Ġvariety": 2509,
      "Ġwanted": 2510,
      "Ġimage": 2511,
      "Ġsle": 2512,
      "Ġchoice": 2513,
      "Ġstat": 2514,
      "oura": 2515,
      "Ġactivities": 2516,
      "oon": 2517,
      "ison": 2518,
      "mit": 2519,
      "Ġrecogn": 2520,
      "Ġprobably": 2521,
      "Ġstandard": 2522,
      "Ġwood": 2523,
      "Ġaction": 2524,
      "Ġrunning": 2525,
      "Ġreceived": 2526,
      "Ġbott": 2527,
      "??": 2528,
      "arget": 2529,
      "25": 2530,
      "Ġattend": 2531,
      "itor": 2532,
      "Ġlonger": 2533,
      "And": 2534,
      "Ġinfl": 2535,
      "itting": 2536,
      "Ġfinal": 2537,
      "Ġcannot": 2538,
      "Ġrole": 2539,
      "Ġhappy": 2540,
      "itten": 2541,
      "Ġbuilt": 2542,
      "60": 2543,
      "Ġaccording": 2544,
      "Ġinside": 2545,
      "Ġsimilar": 2546,
      "Ġversion": 2547,
      "Ġitems": 2548,
      "ĠWorld": 2549,
      "ĠJan": 2550,
      "Ġmaintain": 2551,
      "Ġill": 2552,
      "Ġrespect": 2553,
      "Ġprior": 2554,
      "Ġexact": 2555,
      "Ġmarketing": 2556,
      "Ã©": 2557,
      "Ġpretty": 2558,
      "Ġtotal": 2559,
      "hib": 2560,
      "Ġcharacter": 2561,
      "Ġisn": 2562,
      "ĠApr": 2563,
      "Ġsens": 2564,
      "Ġgeneral": 2565,
      "dd": 2566,
      "Ġapply": 2567,
      "Ġmember": 2568,
      "isc": 2569,
      "ground": 2570,
      "Ġcode": 2571,
      "Ġtrue": 2572,
      "Ġvia": 2573,
      "Ġsave": 2574,
      "ĠTH": 2575,
      "Ġfile": 2576,
      "Ġeffic": 2577,
      "aving": 2578,
      "head": 2579,
      "Ġworth": 2580,
      "atform": 2581,
      "Ġconcern": 2582,
      "ĠQu": 2583,
      "Ġpoints": 2584,
      "Ġmaterials": 2585,
      "Ġweight": 2586,
      "action": 2587,
      "Ġcredit": 2588,
      "Ġbal": 2589,
      "aced": 2590,
      "Ġstop": 2591,
      "Ġwords": 2592,
      "Ġdrive": 2593,
      "ĠPer": 2594,
      "Ġquickly": 2595,
      "Ġshall": 2596,
      "Ġallows": 2597,
      "pri": 2598,
      "AC": 2599,
      "Ġproduction": 2600,
      "Ġtold": 2601,
      "Ġcool": 2602,
      "airs": 2603,
      "Ġfilm": 2604,
      "Ġheld": 2605,
      "ox": 2606,
      "Ġcomputer": 2607,
      "Ġloss": 2608,
      "Ġaf": 2609,
      "inks": 2610,
      "ĠStud": 2611,
      "izing": 2612,
      "Ġrecent": 2613,
      "Ġswe": 2614,
      "Ġcosts": 2615,
      "Ġx": 2616,
      "Ġdeg": 2617,
      "Ġreading": 2618,
      "Ġamazing": 2619,
      "ĠHis": 2620,
      "Ġmodern": 2621,
      "Ġanim": 2622,
      "ĠInc": 2623,
      "Ġgrowth": 2624,
      "Ġweeks": 2625,
      "Ġpolit": 2626,
      "ĠStates": 2627,
      "ĠPar": 2628,
      "Ġofficial": 2629,
      "Ġhol": 2630,
      "Ġground": 2631,
      "ĠAf": 2632,
      "idge": 2633,
      "Ġupon": 2634,
      "Ġhon": 2635,
      "ada": 2636,
      "Ġshows": 2637,
      "ĠPe": 2638,
      "Ġbooks": 2639,
      "Ġrelated": 2640,
      "erc": 2641,
      "ĠYork": 2642,
      "atory": 2643,
      "Ġsun": 2644,
      "ceed": 2645,
      "Ġoption": 2646,
      "Ġannoun": 2647,
      "Ġleave": 2648,
      "era": 2649,
      "Ġsaf": 2650,
      "Ġincluded": 2651,
      "Ġproviding": 2652,
      "Ġsix": 2653,
      "Ġteac": 2654,
      "iring": 2655,
      "RE": 2656,
      "ĠDr": 2657,
      "\".": 2658,
      "Ġdom": 2659,
      "ĠSm": 2660,
      "Ġintrodu": 2661,
      "Ġapproach": 2662,
      "ĠSome": 2663,
      "aging": 2664,
      "Ġlatest": 2665,
      "Ġcollect": 2666,
      "Ġpolicy": 2667,
      "ression": 2668,
      "Al": 2669,
      "ĠIm": 2670,
      "Ġnecessary": 2671,
      "Ġneg": 2672,
      "Ġmedical": 2673,
      "Ġcontract": 2674,
      "Ġnetwork": 2675,
      "ĠBy": 2676,
      "Ġequipment": 2677,
      "Ġability": 2678,
      "Ġcause": 2679,
      "icles": 2680,
      "Ġconditions": 2681,
      "Ġlocation": 2682,
      "oud": 2683,
      "Ġsummer": 2684,
      "reg": 2685,
      "Ġpatients": 2686,
      "Ġarticle": 2687,
      "ĠPark": 2688,
      "Ġanyone": 2689,
      "hold": 2690,
      "40": 2691,
      "Ġbase": 2692,
      "ĠKe": 2693,
      "ysis": 2694,
      "ecut": 2695,
      "Ġworked": 2696,
      "Ġmix": 2697,
      "Ġbehind": 2698,
      "Ġflow": 2699,
      "Ġcouple": 2700,
      "Ġlower": 2701,
      "Ġpurchase": 2702,
      "oman": 2703,
      "Ġtools": 2704,
      "18": 2705,
      "Ġterms": 2706,
      "Ġrad": 2707,
      "Ġsolution": 2708,
      "Ġstri": 2709,
      "Ġdisplay": 2710,
      "But": 2711,
      "Ġnorm": 2712,
      "Ġsell": 2713,
      "based": 2714,
      "ĠWill": 2715,
      "urg": 2716,
      "ĠGe": 2717,
      "Ġtown": 2718,
      "ening": 2719,
      "adem": 2720,
      "Ġ#": 2721,
      "ublic": 2722,
      "Ġ2015": 2723,
      "wor": 2724,
      "Ġlooks": 2725,
      "ĠPres": 2726,
      "Ġchalleng": 2727,
      "Ġprograms": 2728,
      "Ġboard": 2729,
      "Ġtypes": 2730,
      "ĠJust": 2731,
      "Ġlangu": 2732,
      "Ġspeed": 2733,
      "Ġinde": 2734,
      "pose": 2735,
      "ĠCenter": 2736,
      "Ġinternational": 2737,
      "ana": 2738,
      "Ġclick": 2739,
      "With": 2740,
      "Ġrecently": 2741,
      "Ġgen": 2742,
      "Ġfig": 2743,
      "Ġvi": 2744,
      "iter": 2745,
      "ĠHigh": 2746,
      "earch": 2747,
      "ĠUK": 2748,
      "ively": 2749,
      "Ġple": 2750,
      "Ġones": 2751,
      "ores": 2752,
      "ipe": 2753,
      "Ġarri": 2754,
      "Ġcele": 2755,
      "my": 2756,
      "Ġrent": 2757,
      "bor": 2758,
      "oph": 2759,
      "Ġparts": 2760,
      "ĠTw": 2761,
      "Ġlic": 2762,
      "Ġarr": 2763,
      "ters": 2764,
      "Ġemb": 2765,
      "Ġfa": 2766,
      "Ġspeak": 2767,
      "Ġsat": 2768,
      "ese": 2769,
      "Ġdeep": 2770,
      "Ġlives": 2771,
      "Ġfeed": 2772,
      "Ġstudent": 2773,
      "ĠBra": 2774,
      "Ġdescrib": 2775,
      "ĠApril": 2776,
      "Ġhair": 2777,
      "Ġsubject": 2778,
      "Ġdest": 2779,
      "Ġcondition": 2780,
      "Ġcommer": 2781,
      "ĠBu": 2782,
      "Ġbi": 2783,
      "ky": 2784,
      "Ġinj": 2785,
      "iam": 2786,
      "Ġtarget": 2787,
      "ĠDep": 2788,
      "Ġprim": 2789,
      "rs": 2790,
      "Ġnothing": 2791,
      "Ġseems": 2792,
      "arth": 2793,
      "Ð°": 2794,
      "Ġscreen": 2795,
      "akes": 2796,
      "Ġexpert": 2797,
      "ĠPlease": 2798,
      "Ġsche": 2799,
      "ension": 2800,
      "ĠCor": 2801,
      "Ġasked": 2802,
      "Ġmeeting": 2803,
      "Ġsepar": 2804,
      "Ġcook": 2805,
      "Ġexcellent": 2806,
      "Ġsale": 2807,
      "ming": 2808,
      "Ġfresh": 2809,
      "Ġleaders": 2810,
      "nds": 2811,
      "erve": 2812,
      "Ġmov": 2813,
      "Ġplatform": 2814,
      "Ġbath": 2815,
      "Ġdraw": 2816,
      "ĠWest": 2817,
      "Ġstock": 2818,
      "ĠReg": 2819,
      "Ġlevels": 2820,
      "Ġsafety": 2821,
      "istic": 2822,
      "cil": 2823,
      "Ġplans": 2824,
      "Ġcy": 2825,
      "aby": 2826,
      "oogle": 2827,
      "Ġgoal": 2828,
      "Ġbud": 2829,
      "ham": 2830,
      "Ġpers": 2831,
      "ĠOct": 2832,
      "na": 2833,
      "Ġimmedi": 2834,
      "ĠBar": 2835,
      "ached": 2836,
      "ooking": 2837,
      "ĠPre": 2838,
      "reng": 2839,
      "Ġdevice": 2840,
      "Ġsong": 2841,
      "ĠAct": 2842,
      "ĠJu": 2843,
      "ĠNow": 2844,
      "Ġbenefits": 2845,
      "Ġcollection": 2846,
      "ĠAustral": 2847,
      "Ġsett": 2848,
      "Ġchance": 2849,
      "Ġhighly": 2850,
      "sing": 2851,
      "OS": 2852,
      "ĠAb": 2853,
      "Ġsqu": 2854,
      "Ġprotect": 2855,
      "ĠArt": 2856,
      "ples": 2857,
      "Ġtit": 2858,
      "Ġtrust": 2859,
      "iforn": 2860,
      "Ġresources": 2861,
      "--": 2862,
      "orage": 2863,
      "Ġplant": 2864,
      "Ġencoura": 2865,
      "irit": 2866,
      "Ġfram": 2867,
      "Ġprices": 2868,
      "uary": 2869,
      "Ġleading": 2870,
      "Ġregist": 2871,
      "Ġsense": 2872,
      "mas": 2873,
      "//": 2874,
      "Ġdecision": 2875,
      "anc": 2876,
      "nal": 2877,
      "Ġsource": 2878,
      "Ġcases": 2879,
      "cription": 2880,
      "inary": 2881,
      "Ġkitchen": 2882,
      "Ġclos": 2883,
      "Ġrequirements": 2884,
      "gu": 2885,
      "ession": 2886,
      "Ġcountries": 2887,
      "Ġ2014": 2888,
      "Ġcand": 2889,
      "Ġminim": 2890,
      "just": 2891,
      "ifornia": 2892,
      "Ġnational": 2893,
      "Ġgives": 2894,
      "200": 2895,
      "Ġhuge": 2896,
      "Ġexplo": 2897,
      "Ġdigital": 2898,
      "Ġmass": 2899,
      "Ġdaily": 2900,
      "Ġsolutions": 2901,
      "lier": 2902,
      "Ġarch": 2903,
      "Ġrout": 2904,
      "Ġded": 2905,
      "iet": 2906,
      "Ġcat": 2907,
      "Ġcommercial": 2908,
      "edding": 2909,
      "Ġmoment": 2910,
      "OT": 2911,
      "ĠAmerica": 2912,
      "Ġexcept": 2913,
      "cast": 2914,
      "Ġhelps": 2915,
      "Ġfavorite": 2916,
      "ĠDon": 2917,
      "Ġmultiple": 2918,
      "Ġmobile": 2919,
      "year": 2920,
      "onst": 2921,
      "Ġitself": 2922,
      "ĠMc": 2923,
      "Ġinvolved": 2924,
      "ĠCounty": 2925,
      "sc": 2926,
      "Ġball": 2927,
      "Ġenter": 2928,
      "Ġcam": 2929,
      "Ġthemselves": 2930,
      "ishing": 2931,
      "Ġextreme": 2932,
      "All": 2933,
      "Ġlif": 2934,
      "16": 2935,
      "ĠWhile": 2936,
      "iddle": 2937,
      "ological": 2938,
      "sy": 2939,
      "ĠOff": 2940,
      "bit": 2941,
      "Ġimages": 2942,
      "At": 2943,
      "OU": 2944,
      "Ġwritten": 2945,
      "Ġdoor": 2946,
      "ffects": 2947,
      "Ġfurn": 2948,
      "Ġmatch": 2949,
      "Ġsection": 2950,
      "ĠAut": 2951,
      "Ġ40": 2952,
      "eal": 2953,
      "ests": 2954,
      "Ġfix": 2955,
      "My": 2956,
      "ĠSw": 2957,
      "ivity": 2958,
      "Ġglobal": 2959,
      "Ġobs": 2960,
      "ĠAir": 2961,
      "17": 2962,
      "Ġround": 2963,
      "ĠMarch": 2964,
      "Ġinnov": 2965,
      "Ġinstead": 2966,
      "ging": 2967,
      "Ġmount": 2968,
      "board": 2969,
      "ober": 2970,
      "AM": 2971,
      "14": 2972,
      "ĠHealth": 2973,
      "Ġlate": 2974,
      "arden": 2975,
      "Ġparents": 2976,
      "âĢĿ.": 2977,
      "like": 2978,
      "ences": 2979,
      "ĠDay": 2980,
      "Ġqual": 2981,
      "arter": 2982,
      "Ġaverage": 2983,
      "Ġdise": 2984,
      "Ġdirectly": 2985,
      "://": 2986,
      "Ġwrite": 2987,
      "Ġcenter": 2988,
      "Ġimplement": 2989,
      "atives": 2990,
      "Ġtouch": 2991,
      "lim": 2992,
      "Ġdocument": 2993,
      "itation": 2994,
      "Ġsmo": 2995,
      "illing": 2996,
      "Ġfully": 2997,
      "Ġimm": 2998,
      "Ġlegal": 2999,
      "iture": 3000,
      "Ġmorning": 3001,
      "onse": 3002,
      "13": 3003,
      "Ġphotos": 3004,
      "Ġaffect": 3005,
      "Ġsil": 3006,
      "iding": 3007,
      "Ġmachine": 3008,
      "ĠPol": 3009,
      "Ġessential": 3010,
      "Ġpiece": 3011,
      "Ġcondu": 3012,
      "itely": 3013,
      "ĠVal": 3014,
      "Ġplanning": 3015,
      "Ġmention": 3016,
      "erous": 3017,
      "Ġhands": 3018,
      "Ġsuit": 3019,
      "Ġdecided": 3020,
      "Ġdeliver": 3021,
      "Ġgreen": 3022,
      "Ġlost": 3023,
      "Ġcareer": 3024,
      "Ġattention": 3025,
      "isions": 3026,
      "wise": 3027,
      "Ġsites": 3028,
      "irth": 3029,
      "Ġaw": 3030,
      "Ġclient": 3031,
      "Ġmyself": 3032,
      "ĠFin": 3033,
      "Ġremember": 3034,
      "izes": 3035,
      "Ġcompletely": 3036,
      "idered": 3037,
      "now": 3038,
      "Ġstreng": 3039,
      "aign": 3040,
      "Ġpartners": 3041,
      "Ġinteresting": 3042,
      "ondon": 3043,
      "Ġprevent": 3044,
      "agn": 3045,
      "Ġanswer": 3046,
      "Ġprem": 3047,
      "partment": 3048,
      "Ġsaw": 3049,
      "asons": 3050,
      "ole": 3051,
      "pre": 3052,
      "dule": 3053,
      "Ġcreating": 3054,
      "Ġrestaur": 3055,
      "Ġcas": 3056,
      "Ġfloor": 3057,
      "Ġear": 3058,
      "Ġdeath": 3059,
      "Ġgir": 3060,
      "ĠInternational": 3061,
      "Ġwarm": 3062,
      "ĠWind": 3063,
      "Ġachieve": 3064,
      "Ġcorrect": 3065,
      "Ġsupply": 3066,
      "lied": 3067,
      "roll": 3068,
      "Ġgradu": 3069,
      "hood": 3070,
      "Ġri": 3071,
      "hern": 3072,
      "Ġorganization": 3073,
      "ĠDis": 3074,
      "Ġattack": 3075,
      "haps": 3076,
      "ĠEd": 3077,
      "ties": 3078,
      "Ġlimited": 3079,
      "Ġgiving": 3080,
      "Ġreach": 3081,
      "iction": 3082,
      "Ġblood": 3083,
      "Ġload": 3084,
      "Ġcommit": 3085,
      "Ġplaying": 3086,
      "ressed": 3087,
      "Ġdeveloped": 3088,
      "Ġobtain": 3089,
      "ĠRec": 3090,
      "isf": 3091,
      "ĠHouse": 3092,
      "Ġpositive": 3093,
      "OM": 3094,
      "Ġheat": 3095,
      "Ġhous": 3096,
      "Ġsurpr": 3097,
      "ilies": 3098,
      "Ġsold": 3099,
      "vey": 3100,
      "ĠGr": 3101,
      "Ġsubst": 3102,
      "aves": 3103,
      "Ġplayers": 3104,
      "Ġpromot": 3105,
      "Ġaware": 3106,
      "ĠInt": 3107,
      "ĠSept": 3108,
      "Ġcross": 3109,
      "Ġapplications": 3110,
      "Ġcirc": 3111,
      "Ġconsult": 3112,
      "org": 3113,
      "Ġcomplex": 3114,
      "mon": 3115,
      "Ġdru": 3116,
      "ĠGerm": 3117,
      "mission": 3118,
      "urb": 3119,
      "aged": 3120,
      "wood": 3121,
      "Ġwel": 3122,
      "Ġtrip": 3123,
      "ades": 3124,
      "Ġbecame": 3125,
      "Ġgoes": 3126,
      "Ġsuccessful": 3127,
      "aly": 3128,
      "ĠNet": 3129,
      "Ġtraditional": 3130,
      "Ġblock": 3131,
      "Ġpath": 3132,
      "aper": 3133,
      "Ġconcept": 3134,
      "su": 3135,
      "Ġavoid": 3136,
      "ker": 3137,
      "usion": 3138,
      "Ġadminist": 3139,
      "ĠAssoci": 3140,
      "Ġgroups": 3141,
      "ĠJune": 3142,
      "Ġtowards": 3143,
      "Ġconnect": 3144,
      "Ġsometimes": 3145,
      "ude": 3146,
      "uses": 3147,
      "Ġhear": 3148,
      "fl": 3149,
      "verse": 3150,
      "Ġpicture": 3151,
      "avy": 3152,
      "Ġindividuals": 3153,
      "ought": 3154,
      "Ġemployees": 3155,
      "iles": 3156,
      "cies": 3157,
      "Be": 3158,
      "Ġlab": 3159,
      "ĠEnglish": 3160,
      "Ġwar": 3161,
      "24": 3162,
      "Ġconsidered": 3163,
      "Ġthinking": 3164,
      "Ġrev": 3165,
      "Ġbusinesses": 3166,
      "Ġattempt": 3167,
      "igation": 3168,
      "uel": 3169,
      "Ġcopy": 3170,
      "arant": 3171,
      "enty": 3172,
      "Ġadvant": 3173,
      "Ġinterested": 3174,
      "Ġvehicle": 3175,
      "ET": 3176,
      "ĠHer": 3177,
      "ĠIndia": 3178,
      "hel": 3179,
      "Ġbegan": 3180,
      "Ġdamage": 3181,
      "Ġnature": 3182,
      "Ġmat": 3183,
      "Ġstarting": 3184,
      "ĠAfric": 3185,
      "Ġanalysis": 3186,
      "ĠAc": 3187,
      "amb": 3188,
      "Ġ--": 3189,
      "ĠThen": 3190,
      "Ġcarry": 3191,
      "Ġconsist": 3192,
      "Ġpred": 3193,
      "Ġglass": 3194,
      "Ġexpected": 3195,
      "Ġfair": 3196,
      "Ġaltern": 3197,
      "ength": 3198,
      "Ġcourt": 3199,
      "nes": 3200,
      "Ġinstru": 3201,
      "Do": 3202,
      "hest": 3203,
      "ĠBrit": 3204,
      "Ġoffe": 3205,
      "Ġbag": 3206,
      "ĠTV": 3207,
      "Ġobject": 3208,
      "Ġlanguage": 3209,
      "Ġdry": 3210,
      "Ġrelease": 3211,
      "ashing": 3212,
      "aches": 3213,
      "ĠDirect": 3214,
      "enge": 3215,
      "Ġdep": 3216,
      "ĠFrom": 3217,
      "Ġprofession": 3218,
      "Ġdecor": 3219,
      "Ġtemper": 3220,
      "Ġfirm": 3221,
      "ĠOf": 3222,
      "rought": 3223,
      "ama": 3224,
      "artment": 3225,
      "ulations": 3226,
      "oming": 3227,
      "apan": 3228,
      "ĠEm": 3229,
      "chan": 3230,
      "Ġwonderful": 3231,
      "Ġrights": 3232,
      "Ġ2013": 3233,
      "ĠFeb": 3234,
      "ĠBlack": 3235,
      "ma": 3236,
      "idents": 3237,
      "Ġ:": 3238,
      "Ġappropri": 3239,
      "One": 3240,
      "ira": 3241,
      "ĠSal": 3242,
      "ĠEl": 3243,
      "ption": 3244,
      "Ġproced": 3245,
      "ĠMr": 3246,
      "Ġwish": 3247,
      "uth": 3248,
      "Ġhor": 3249,
      "ĠGoogle": 3250,
      "ĠAug": 3251,
      "Ġpropos": 3252,
      "Ġgold": 3253,
      "ĠMon": 3254,
      "Ġplaces": 3255,
      "Ġwal": 3256,
      "Ġdiv": 3257,
      "Ġcelebr": 3258,
      "Ġtick": 3259,
      "ĠJanuary": 3260,
      "Ġbudget": 3261,
      "gy": 3262,
      "Ġstorage": 3263,
      "Ġweeke": 3264,
      "70": 3265,
      "ses": 3266,
      "ara": 3267,
      "Ġprec": 3268,
      "Ġten": 3269,
      "iff": 3270,
      "usiness": 3271,
      "ida": 3272,
      "Ġep": 3273,
      "Ġmessage": 3274,
      "ica": 3275,
      "Ġgrowing": 3276,
      "Ġactivity": 3277,
      "Ġunderstanding": 3278,
      "band": 3279,
      "Ġformer": 3280,
      "Ġemerg": 3281,
      "Ġwrong": 3282,
      "ek": 3283,
      "ĠLondon": 3284,
      "Ġhour": 3285,
      "Ġassess": 3286,
      "Ġorganiz": 3287,
      "ST": 3288,
      "Ġhit": 3289,
      "Ġfab": 3290,
      "Ġhealthy": 3291,
      "Ġexactly": 3292,
      "Ġguide": 3293,
      "Ġmid": 3294,
      "itute": 3295,
      "Ġsituation": 3296,
      "ĠService": 3297,
      "ĠMore": 3298,
      "Ġanaly": 3299,
      "Ġregion": 3300,
      "Ġentry": 3301,
      "EC": 3302,
      "rences": 3303,
      "Ġ2012": 3304,
      "Ġconstruction": 3305,
      "After": 3306,
      "Ġfine": 3307,
      "Ġpurpose": 3308,
      "Ġ21": 3309,
      "Ġjud": 3310,
      "ĠSan": 3311,
      "ications": 3312,
      "Ġposted": 3313,
      "ĠJuly": 3314,
      "reci": 3315,
      "Ġcampaign": 3316,
      "ĠOctober": 3317,
      "yond": 3318,
      "ĠAcc": 3319,
      "Ġgar": 3320,
      "ibly": 3321,
      "Ġopportunities": 3322,
      "Ġphysical": 3323,
      "ography": 3324,
      "Ġdifference": 3325,
      "Ġsleep": 3326,
      "ester": 3327,
      "Ġge": 3328,
      "key": 3329,
      "Ġfamilies": 3330,
      "Ġinvestment": 3331,
      "ĠHere": 3332,
      "ĠPresident": 3333,
      "ĠHar": 3334,
      "rast": 3335,
      "vant": 3336,
      "aries": 3337,
      "Ġpublished": 3338,
      "Ġfarm": 3339,
      "Ġnote": 3340,
      "Ġinternet": 3341,
      "Ġdevices": 3342,
      "ny": 3343,
      "Ġdream": 3344,
      "Ġexerc": 3345,
      "ĠGl": 3346,
      "Ġmoving": 3347,
      "Ġreplace": 3348,
      "zy": 3349,
      "Ġprevious": 3350,
      "Ġsubs": 3351,
      "Ġcontain": 3352,
      "Ġaim": 3353,
      "ĠRed": 3354,
      "Ġunit": 3355,
      "ĠChina": 3356,
      "Ġearn": 3357,
      "Ġdefinitely": 3358,
      "ĠTechn": 3359,
      "ĠAN": 3360,
      "ING": 3361,
      "Ġenh": 3362,
      "Ġresponse": 3363,
      "ĠSund": 3364,
      "Ġuses": 3365,
      "Ġeat": 3366,
      "Ġeffort": 3367,
      "ĠBro": 3368,
      "ederal": 3369,
      "Ġdark": 3370,
      "ĠChristmas": 3371,
      "Ġli": 3372,
      "Ġfight": 3373,
      "het": 3374,
      "Sh": 3375,
      "Ġaward": 3376,
      "Ġreduce": 3377,
      "Ġoffering": 3378,
      "off": 3379,
      "ĠHome": 3380,
      "Ġpattern": 3381,
      "Ġphoto": 3382,
      "Ġacqu": 3383,
      "22": 3384,
      "Ġbur": 3385,
      "Ġafford": 3386,
      "Ġgoals": 3387,
      "Ġlog": 3388,
      "ĠFriday": 3389,
      "Ġpages": 3390,
      "ĠAlso": 3391,
      "Ġfrequ": 3392,
      "Ġfelt": 3393,
      "rate": 3394,
      "Ġpressure": 3395,
      "antly": 3396,
      "Ġcateg": 3397,
      "mat": 3398,
      "olute": 3399,
      "ari": 3400,
      "Ġhistor": 3401,
      "PS": 3402,
      "ĠJes": 3403,
      "Ġgas": 3404,
      "Re": 3405,
      "Ġsus": 3406,
      "Ġbank": 3407,
      "Ġcash": 3408,
      "Ġcomment": 3409,
      "ĠServices": 3410,
      "Ġinflu": 3411,
      "raft": 3412,
      "ĠCoun": 3413,
      "Ġconvers": 3414,
      "ruit": 3415,
      "Ġsmart": 3416,
      "Ġslow": 3417,
      "ĠGroup": 3418,
      "ares": 3419,
      "Ġneigh": 3420,
      "Ġled": 3421,
      "Ġdelivery": 3422,
      "Ġintegr": 3423,
      "Ġcharge": 3424,
      "ĠCons": 3425,
      "Ġ198": 3426,
      "ĠDav": 3427,
      "ecause": 3428,
      "word": 3429,
      "Ġcapt": 3430,
      "Ġbenefit": 3431,
      "ĠMost": 3432,
      "Ġspot": 3433,
      "Ġeye": 3434,
      "Ġmother": 3435,
      "Ġactive": 3436,
      "porate": 3437,
      "EL": 3438,
      "Ġbroad": 3439,
      "ĠThanks": 3440,
      "error": 3441,
      "Ġshop": 3442,
      "Ġcontribut": 3443,
      "gram": 3444,
      "Ġaccom": 3445,
      "ĠCour": 3446,
      "Ġwait": 3447,
      "ville": 3448,
      "Ġviol": 3449,
      "Ġwedding": 3450,
      "ovember": 3451,
      "Ġvac": 3452,
      "Ġeasier": 3453,
      "ĠSeptember": 3454,
      "lin": 3455,
      "Ġpictures": 3456,
      "Ġsatisf": 3457,
      "Ġexecut": 3458,
      "Ġtele": 3459,
      "ĠWar": 3460,
      "Ġloved": 3461,
      "ĠMus": 3462,
      "Ġgets": 3463,
      "Ġpull": 3464,
      "Ġadvice": 3465,
      "Ġstuff": 3466,
      "cember": 3467,
      "Ġcompon": 3468,
      "Ġ60": 3469,
      "ĠSer": 3470,
      "ĠDesign": 3471,
      "rench": 3472,
      "Ġinitial": 3473,
      "Ġsurface": 3474,
      "Ġserve": 3475,
      "Ġdire": 3476,
      "rial": 3477,
      "Ġshown": 3478,
      "ĠFree": 3479,
      "Ġoffered": 3480,
      "ĠCommun": 3481,
      "Ġsurround": 3482,
      "EO": 3483,
      "ĠGener": 3484,
      "Ġappreci": 3485,
      "Ġrates": 3486,
      "Ġdemand": 3487,
      "23": 3488,
      "ĠJapan": 3489,
      "ĠDepartment": 3490,
      "Ġpaid": 3491,
      "IL": 3492,
      "Ġowners": 3493,
      "Ġmaxim": 3494,
      "gar": 3495,
      "iling": 3496,
      "ĠEvery": 3497,
      "Ġeffects": 3498,
      "right": 3499,
      "pects": 3500,
      "ube": 3501,
      "rapy": 3502,
      "amed": 3503,
      "Ġschools": 3504,
      "idential": 3505,
      "sp": 3506,
      "99": 3507,
      "sequ": 3508,
      "oms": 3509,
      "Ġreleased": 3510,
      "arily": 3511,
      "ka": 3512,
      "orge": 3513,
      "Ġindepend": 3514,
      "Ġ2011": 3515,
      "AP": 3516,
      "Ġoverall": 3517,
      "Ġult": 3518,
      "ĠFace": 3519,
      "Ġmark": 3520,
      "ĠSim": 3521,
      "Ġadult": 3522,
      "Ġbasic": 3523,
      "Ġgave": 3524,
      "ĠKing": 3525,
      "Ġuseful": 3526,
      "Ġver": 3527,
      "Ġspent": 3528,
      "Ġroll": 3529,
      "pite": 3530,
      "ID": 3531,
      "'d": 3532,
      "Ġhotel": 3533,
      "etic": 3534,
      "Ġguarant": 3535,
      "Ġmeasure": 3536,
      "ĠIN": 3537,
      "Ġexisting": 3538,
      "formation": 3539,
      "Ġnut": 3540,
      "attle": 3541,
      "ipping": 3542,
      "Ġstories": 3543,
      "Ġregarding": 3544,
      "Ġstress": 3545,
      "oke": 3546,
      "Ġbrought": 3547,
      "urt": 3548,
      "Ġadvert": 3549,
      "Ġbaby": 3550,
      "Ġtried": 3551,
      "Ġstructure": 3552,
      "ĠEven": 3553,
      "Ġtruly": 3554,
      "Ġprefer": 3555,
      "ett": 3556,
      "Ġcertainly": 3557,
      "Ġheard": 3558,
      "Ġexperienced": 3559,
      "Ġdy": 3560,
      "Ġoptim": 3561,
      "Ġdat": 3562,
      "Ġstru": 3563,
      "place": 3564,
      "lock": 3565,
      "Ġeval": 3566,
      "ĠAre": 3567,
      "Ġindic": 3568,
      "Ġculture": 3569,
      "aks": 3570,
      "ĠOut": 3571,
      "ï¿": 3572,
      "ĠTrans": 3573,
      "aul": 3574,
      "ï¿½": 3575,
      "Ġaff": 3576,
      "ams": 3577,
      "Ġassociated": 3578,
      "Ġclub": 3579,
      "Ġtransfer": 3580,
      "Ġimmediately": 3581,
      "Ġrepair": 3582,
      "Ġresponsible": 3583,
      "Ġappoint": 3584,
      "Ġincreased": 3585,
      "Ġaccur": 3586,
      "ĠCalifornia": 3587,
      "ĠRuss": 3588,
      "ĠNovember": 3589,
      "Ġreve": 3590,
      "ospital": 3591,
      "Ġdistribut": 3592,
      "Ġfeeling": 3593,
      "Ġhtt": 3594,
      "Ġbasis": 3595,
      "ĠCompany": 3596,
      "ĠGreat": 3597,
      "Ġbehav": 3598,
      "unt": 3599,
      "Ġwasn": 3600,
      "Ġincreasing": 3601,
      "ĠChar": 3602,
      "Ġ23": 3603,
      "iced": 3604,
      "ened": 3605,
      "Ġextremely": 3606,
      "ashion": 3607,
      "lies": 3608,
      "Ġmanufacture": 3609,
      "75": 3610,
      "Ġcomfortable": 3611,
      "ĠSystem": 3612,
      "Ġtransport": 3613,
      "Ġoccur": 3614,
      "sych": 3615,
      "oday": 3616,
      "ancy": 3617,
      "Ġdefe": 3618,
      "Ġeyes": 3619,
      "des": 3620,
      "change": 3621,
      "Ġrespond": 3622,
      "Ġinterview": 3623,
      "aturday": 3624,
      "__": 3625,
      "Ġcollege": 3626,
      "ertain": 3627,
      "Ġappropriate": 3628,
      "itary": 3629,
      "Ġble": 3630,
      "Ġweekend": 3631,
      "ĠEast": 3632,
      "enior": 3633,
      "ĠPat": 3634,
      "Ġpet": 3635,
      "ague": 3636,
      "Ġideal": 3637,
      "Ġlots": 3638,
      "ĠJesus": 3639,
      "Ġpayment": 3640,
      "ded": 3641,
      "Ġspirit": 3642,
      "Ġbirth": 3643,
      "Ġparticularly": 3644,
      "istry": 3645,
      "ibrary": 3646,
      "Ġter": 3647,
      "Ġlack": 3648,
      "ils": 3649,
      "Ġeconomic": 3650,
      "ĠDecember": 3651,
      "house": 3652,
      "Ġstage": 3653,
      "ruary": 3654,
      "ĠSunday": 3655,
      "Ġhomes": 3656,
      "ĠProf": 3657,
      "Ġpatient": 3658,
      "Ġdouble": 3659,
      "inner": 3660,
      "umn": 3661,
      "Ġadjust": 3662,
      "porary": 3663,
      "ĠEuropean": 3664,
      "Ġimag": 3665,
      "ĠLet": 3666,
      "Ġbeyond": 3667,
      "Ġcompared": 3668,
      "ressive": 3669,
      "Ġdog": 3670,
      "ĠInternet": 3671,
      "Ġreported": 3672,
      "Ġdegree": 3673,
      "ronic": 3674,
      "Ph": 3675,
      "Ġannual": 3676,
      "vest": 3677,
      "Ġsort": 3678,
      "Ġhighest": 3679,
      "useum": 3680,
      "hens": 3681,
      "Ġbackground": 3682,
      "Ġpen": 3683,
      "Ġtrade": 3684,
      "Ġbrow": 3685,
      "Ġ22": 3686,
      "ĠAugust": 3687,
      "erved": 3688,
      "Ġpool": 3689,
      "Ġreli": 3690,
      "ĠTHE": 3691,
      "Ġselection": 3692,
      "Ġbeginning": 3693,
      "mitted": 3694,
      "Ġpolitical": 3695,
      "Ġextend": 3696,
      "Ġcompleted": 3697,
      "Ġdoll": 3698,
      "Cl": 3699,
      "iety": 3700,
      "ĠMich": 3701,
      "Ġbottom": 3702,
      "Ġproduce": 3703,
      "Ġson": 3704,
      "icks": 3705,
      "Ġgift": 3706,
      "Ġnormal": 3707,
      "ser": 3708,
      "ĠFlor": 3709,
      "Ġfurniture": 3710,
      "nded": 3711,
      "Ġsetting": 3712,
      "ancing": 3713,
      "Ġutil": 3714,
      "ĠCollege": 3715,
      "Ġnotice": 3716,
      "ule": 3717,
      "Ġtask": 3718,
      "body": 3719,
      "ĠLaw": 3720,
      "Ġ2010": 3721,
      "tee": 3722,
      "ĠLa": 3723,
      "Ġloan": 3724,
      "Ġlargest": 3725,
      "olf": 3726,
      "ĠBusiness": 3727,
      "Ġblue": 3728,
      "ĠFirst": 3729,
      "Ġweather": 3730,
      "vis": 3731,
      "Ġfell": 3732,
      "Ġhelping": 3733,
      "zz": 3734,
      "Ġtrain": 3735,
      "Ġmovie": 3736,
      "Ġpowerful": 3737,
      "That": 3738,
      "rie": 3739,
      "asc": 3740,
      "Ex": 3741,
      "Ġjoin": 3742,
      "Ġdisease": 3743,
      "Ġfeet": 3744,
      "Ġvot": 3745,
      "wide": 3746,
      "ologies": 3747,
      "Ġlines": 3748,
      "aint": 3749,
      "rated": 3750,
      "istics": 3751,
      "Ġfiles": 3752,
      "set": 3753,
      "Ġcove": 3754,
      "Ġdemonst": 3755,
      "ris": 3756,
      "35": 3757,
      "Ġdress": 3758,
      "Pro": 3759,
      "ĠBoard": 3760,
      "col": 3761,
      "uk": 3762,
      "Ġcollabor": 3763,
      "Ġclin": 3764,
      "Ġchanged": 3765,
      "Ġbatter": 3766,
      "Ġdro": 3767,
      "ĠMod": 3768,
      "Ġcab": 3769,
      "Ġthous": 3770,
      "Ġfinish": 3771,
      "tenance": 3772,
      "ĠÂ£": 3773,
      "Ġdead": 3774,
      "Ġprotection": 3775,
      "Ġsust": 3776,
      "Is": 3777,
      "Ġplayed": 3778,
      "Ġcreative": 3779,
      "ĠÑ": 3780,
      "Ġrelax": 3781,
      "Ġefficient": 3782,
      "Ġborn": 3783,
      "Ġelectric": 3784,
      "Ġmeaning": 3785,
      "Ġlength": 3786,
      "ĠCanada": 3787,
      "Ġmethods": 3788,
      "Ġmaster": 3789,
      "duc": 3790,
      "oly": 3791,
      "Ġund": 3792,
      "Ġsteps": 3793,
      "Ġemot": 3794,
      "Ġteams": 3795,
      "bert": 3796,
      "Ġbelie": 3797,
      "que": 3798,
      "itter": 3799,
      "Ġknew": 3800,
      "bon": 3801,
      "ager": 3802,
      "Ġgrand": 3803,
      "ĠFacebook": 3804,
      "Ġchem": 3805,
      "Ġrace": 3806,
      "Ġgreater": 3807,
      "Ġmort": 3808,
      "Ġallowed": 3809,
      "ulf": 3810,
      "dom": 3811,
      "65": 3812,
      "Ġabsolute": 3813,
      "ray": 3814,
      "acity": 3815,
      "Ġing": 3816,
      "aling": 3817,
      "ulated": 3818,
      "iques": 3819,
      "Ġestate": 3820,
      "Ġreasons": 3821,
      "Ġcards": 3822,
      "more": 3823,
      "Ġmodels": 3824,
      "ault": 3825,
      "itect": 3826,
      "Ġhelped": 3827,
      "Ġplayer": 3828,
      "Ġchallenge": 3829,
      "Ġcandid": 3830,
      "Ġband": 3831,
      "45": 3832,
      "ĠIS": 3833,
      "Ġscience": 3834,
      "Ġstraight": 3835,
      "ĠFebruary": 3836,
      "ĠCle": 3837,
      "IG": 3838,
      "Ġpow": 3839,
      "Ġnumbers": 3840,
      "Ġsecure": 3841,
      "imin": 3842,
      "Ġnearly": 3843,
      "Ġsharing": 3844,
      "rol": 3845,
      "odes": 3846,
      "ĠDec": 3847,
      "ders": 3848,
      "unte": 3849,
      "Ġexhib": 3850,
      "AD": 3851,
      "venue": 3852,
      "Ġrules": 3853,
      "Ġinstitut": 3854,
      "ĠIT": 3855,
      "undred": 3856,
      "ĠStreet": 3857,
      "ĠGet": 3858,
      "door": 3859,
      "Ġvict": 3860,
      "These": 3861,
      "Ġnation": 3862,
      "icing": 3863,
      "care": 3864,
      "US": 3865,
      "atever": 3866,
      "anch": 3867,
      "Ġthank": 3868,
      "ously": 3869,
      "Ġjourney": 3870,
      "Ġthanks": 3871,
      "Ġstrategy": 3872,
      "ĠMany": 3873,
      "ĠSaturday": 3874,
      "Ġserved": 3875,
      "Ġmaybe": 3876,
      "Ġlarger": 3877,
      "Ġfat": 3878,
      "Ġtechnical": 3879,
      "Ġscient": 3880,
      "Ġidentify": 3881,
      "OL": 3882,
      "Ġmechan": 3883,
      "pen": 3884,
      "MS": 3885,
      "Ġ28": 3886,
      "field": 3887,
      "Ġsoci": 3888,
      "Ġoccas": 3889,
      "inter": 3890,
      "ipped": 3891,
      "ĠIndian": 3892,
      "Ġwine": 3893,
      "Ġpaint": 3894,
      "Ġhop": 3895,
      "Ġcoffe": 3896,
      "ĠInter": 3897,
      "ned": 3898,
      "arc": 3899,
      "icip": 3900,
      "iment": 3901,
      "Ġprinc": 3902,
      "ooks": 3903,
      "Ġletter": 3904,
      "Ġremo": 3905,
      "Ġbedroom": 3906,
      "Ġcru": 3907,
      "atically": 3908,
      "Ġadvantage": 3909,
      "Ġrock": 3910,
      "Ġexperts": 3911,
      "Ġcapital": 3912,
      "Ġincome": 3913,
      "Ġevidence": 3914,
      "Ġturned": 3915,
      "Ġestablished": 3916,
      "sec": 3917,
      "force": 3918,
      "Ġrequires": 3919,
      "estern": 3920,
      "Ġwindow": 3921,
      "Ġcold": 3922,
      "hol": 3923,
      "Ġfant": 3924,
      "usive": 3925,
      "anging": 3926,
      "Ġcraft": 3927,
      "Ġattract": 3928,
      "iant": 3929,
      "ĠMarket": 3930,
      "ivil": 3931,
      "Ġcolle": 3932,
      "ĠWindows": 3933,
      "Ġconven": 3934,
      "Ġtips": 3935,
      "Ġalthough": 3936,
      "iny": 3937,
      "Ġthreat": 3938,
      "roid": 3939,
      "Com": 3940,
      "Ġconnection": 3941,
      "Ġstrength": 3942,
      "Ġmill": 3943,
      "Ġitem": 3944,
      "Ġchurch": 3945,
      "oices": 3946,
      "atively": 3947,
      "Ġcovered": 3948,
      "Ġcontinu": 3949,
      "ĠAssociation": 3950,
      "oul": 3951,
      "Ġpieces": 3952,
      "Ġstudies": 3953,
      "Ġcommunication": 3954,
      "Ġreports": 3955,
      "Ġfinally": 3956,
      "ĠPal": 3957,
      "Ġretail": 3958,
      "ĠAny": 3959,
      "ĠIr": 3960,
      "aughter": 3961,
      "ugh": 3962,
      "Ġfather": 3963,
      "ĠGold": 3964,
      "Ġliter": 3965,
      "hy": 3966,
      "Ġfill": 3967,
      "Ġannounced": 3968,
      "Ġremain": 3969,
      "ĠBest": 3970,
      "ĠUp": 3971,
      "ĠProgram": 3972,
      "Ġsty": 3973,
      "Ġmatt": 3974,
      "Ġflav": 3975,
      "Ġsweet": 3976,
      "Ġwear": 3977,
      "ĠDel": 3978,
      "esome": 3979,
      "ĠWell": 3980,
      "Ġwants": 3981,
      "Â®": 3982,
      "Ġsaying": 3983,
      "ĠRet": 3984,
      "Ġchann": 3985,
      "Ġplus": 3986,
      "Ġresist": 3987,
      "rel": 3988,
      "Ġmanage": 3989,
      "Ġonto": 3990,
      "32": 3991,
      "ION": 3992,
      "Ġwild": 3993,
      "ĠRem": 3994,
      "Ġpartner": 3995,
      "Ġdetermine": 3996,
      "Ġalone": 3997,
      "Ġspread": 3998,
      "Ġahead": 3999,
      "ĠPort": 4000,
      "ĠDist": 4001,
      "Ġefforts": 4002,
      "Ġlands": 4003,
      "Ġ26": 4004,
      "ĠAustralia": 4005,
      "term": 4006,
      "reed": 4007,
      "Ġserious": 4008,
      "Ġcoffee": 4009,
      "ĠWhe": 4010,
      "agram": 4011,
      "Ġslight": 4012,
      "ĠHall": 4013,
      "ĠJe": 4014,
      "aker": 4015,
      "see": 4016,
      "iation": 4017,
      "ulate": 4018,
      "Ġtitle": 4019,
      "Ġorganizations": 4020,
      "Ġguid": 4021,
      "ashington": 4022,
      "88": 4023,
      "Ġsports": 4024,
      "Ġstates": 4025,
      "Ġupdate": 4026,
      "encies": 4027,
      "Ġbutton": 4028,
      "order": 4029,
      "semb": 4030,
      "well": 4031,
      "Ġchallenges": 4032,
      "ĠFlorida": 4033,
      "Ġstream": 4034,
      "Ġacadem": 4035,
      "Ġfollowed": 4036,
      "coming": 4037,
      "ĠEduc": 4038,
      "Ġflex": 4039,
      "lands": 4040,
      "nown": 4041,
      "Ġexperiences": 4042,
      "Ġcancer": 4043,
      "Ġgenerally": 4044,
      "Ġcry": 4045,
      "Ġtraffic": 4046,
      "Ġexpand": 4047,
      "Ġgraph": 4048,
      "No": 4049,
      "ĠCouncil": 4050,
      "Ġreviews": 4051,
      "Ġearlier": 4052,
      "Ġwoman": 4053,
      "ĠEach": 4054,
      "Ġfinding": 4055,
      "Ġfra": 4056,
      "Ġtherefore": 4057,
      "hips": 4058,
      "ĠOnce": 4059,
      "yn": 4060,
      "Ġden": 4061,
      "ĠPri": 4062,
      "orrow": 4063,
      "Ġincor": 4064,
      "Ġmis": 4065,
      "Ġhundred": 4066,
      "ĠPC": 4067,
      "Ġdrop": 4068,
      "Ġtim": 4069,
      "Ġaren": 4070,
      "100": 4071,
      "ĠII": 4072,
      "ĠMac": 4073,
      "phone": 4074,
      "Now": 4075,
      "ĠAnt": 4076,
      "Ġteaching": 4077,
      "Ġowner": 4078,
      "Ġcars": 4079,
      "ald": 4080,
      "ĠClub": 4081,
      "Ġorigin": 4082,
      "Ġdedicated": 4083,
      "ribute": 4084,
      "Ġvill": 4085,
      "Ġopin": 4086,
      "ĠSpr": 4087,
      "unk": 4088,
      "rig": 4089,
      "mp": 4090,
      "Ġperhaps": 4091,
      "Ġstandards": 4092,
      "Ġvalues": 4093,
      "ĠWhite": 4094,
      "Ġmiddle": 4095,
      "Ġfear": 4096,
      "Ġmiles": 4097,
      "ĠMond": 4098,
      "Ġmoved": 4099,
      "Please": 4100,
      "overy": 4101,
      "EM": 4102,
      "ios": 4103,
      "Ġbillion": 4104,
      "90": 4105,
      "Ġremove": 4106,
      "Ġharm": 4107,
      "Ġincred": 4108,
      "overed": 4109,
      "Ġdoub": 4110,
      "la": 4111,
      "lation": 4112,
      "Ġlooked": 4113,
      "Ġtag": 4114,
      "othing": 4115,
      "\",": 4116,
      "Ġtrou": 4117,
      "itude": 4118,
      "Ġhus": 4119,
      "ounds": 4120,
      "Ġroof": 4121,
      "Ġsurv": 4122,
      "Ġsolid": 4123,
      "Ġprofessionals": 4124,
      "ying": 4125,
      "Ġserver": 4126,
      "While": 4127,
      "Ġdelic": 4128,
      "ayer": 4129,
      "ament": 4130,
      "ĠOther": 4131,
      "Ġdriving": 4132,
      "Ġbalance": 4133,
      "Ġtur": 4134,
      "Ġcritical": 4135,
      "lying": 4136,
      "olate": 4137,
      "Ġassign": 4138,
      "iber": 4139,
      "Ġstrugg": 4140,
      "Ġvirt": 4141,
      "Ġpark": 4142,
      "ales": 4143,
      "Ġcounter": 4144,
      "tra": 4145,
      "Ġparties": 4146,
      "ĠSince": 4147,
      "Ġ27": 4148,
      "Ġshape": 4149,
      "Ġbathroom": 4150,
      "Ġhimself": 4151,
      "ĠSuper": 4152,
      "ĠGovern": 4153,
      "Ġwhose": 4154,
      "Ġactual": 4155,
      "pective": 4156,
      "Ġmaintenance": 4157,
      "IP": 4158,
      "Ġshoot": 4159,
      "Ġpopulation": 4160,
      "Ġprimary": 4161,
      "Ġschedule": 4162,
      "ĠResearch": 4163,
      "vin": 4164,
      "Ġsand": 4165,
      "Ġcolors": 4166,
      "standing": 4167,
      "Ġopening": 4168,
      "Ġtree": 4169,
      "Ġhandle": 4170,
      "Ġstatement": 4171,
      "aled": 4172,
      "ctors": 4173,
      "Ġmission": 4174,
      "rote": 4175,
      "ula": 4176,
      "Ġpoor": 4177,
      "dy": 4178,
      "Ġrelig": 4179,
      "cape": 4180,
      "ani": 4181,
      "Ġcontains": 4182,
      "ĠSch": 4183,
      "Ġshared": 4184,
      "âĢĿ,": 4185,
      "Ġproduced": 4186,
      "Ġexcl": 4187,
      "ĠFrench": 4188,
      "ĠGood": 4189,
      "soft": 4190,
      "ĠAss": 4191,
      "ĠOffice": 4192,
      "Ġprepared": 4193,
      "Ġcit": 4194,
      "Ġgarden": 4195,
      "Ġcommunities": 4196,
      "Ġlisted": 4197,
      "ĠBel": 4198,
      "Ġplaced": 4199,
      "Ġwelcome": 4200,
      "Ġfinished": 4201,
      "ĠDevelop": 4202,
      "Ġrefer": 4203,
      "iency": 4204,
      "Ġcamera": 4205,
      "gage": 4206,
      "Ġpolice": 4207,
      "Ġfriendly": 4208,
      "Ġbuying": 4209,
      "Ġ+": 4210,
      "Ġbreat": 4211,
      "Ġdiscover": 4212,
      "gen": 4213,
      "mar": 4214,
      "ĠGreen": 4215,
      "Ġpassion": 4216,
      "ĠThank": 4217,
      "ĠWashington": 4218,
      "Ġdiscount": 4219,
      "Ġdeveloping": 4220,
      "Ġprogress": 4221,
      "Ġtemperature": 4222,
      "ĠChurch": 4223,
      "Ġelements": 4224,
      "roud": 4225,
      "Ġadvanced": 4226,
      "Ġcapacity": 4227,
      "ĠFound": 4228,
      "Ġfaith": 4229,
      "Ġforce": 4230,
      "Ġlearned": 4231,
      "active": 4232,
      "ĠCourt": 4233,
      "down": 4234,
      "icking": 4235,
      "ĠSpe": 4236,
      "bu": 4237,
      "ero": 4238,
      "Ġtesting": 4239,
      "Ġviews": 4240,
      "Ġmicro": 4241,
      "ĠWeb": 4242,
      "ij": 4243,
      "ĠSee": 4244,
      "Ġcleaning": 4245,
      "26": 4246,
      "ommod": 4247,
      "Ġ|": 4248,
      "ĠAC": 4249,
      "Ġcourses": 4250,
      "Ġgain": 4251,
      "Ġholiday": 4252,
      "rem": 4253,
      "Ġclasses": 4254,
      "Ġhaven": 4255,
      "Ġcompetition": 4256,
      "ĠBook": 4257,
      "Ġrich": 4258,
      "Ġlimit": 4259,
      "Ġsession": 4260,
      "ico": 4261,
      "Ġpeace": 4262,
      "ĠAnn": 4263,
      "Ġproperties": 4264,
      "bum": 4265,
      "Ġcentury": 4266,
      "Ġiniti": 4267,
      "Ð¸": 4268,
      "Ġtalking": 4269,
      "Ġban": 4270,
      "Ġestablish": 4271,
      "enture": 4272,
      "Ġpros": 4273,
      "Ġfactors": 4274,
      "Ġwinter": 4275,
      "lines": 4276,
      "estival": 4277,
      "Ġfacilities": 4278,
      "Ġwife": 4279,
      "ĠMicro": 4280,
      "ael": 4281,
      "amin": 4282,
      "Ġshopping": 4283,
      "enses": 4284,
      "Ġhighlight": 4285,
      "Ġplants": 4286,
      "ĠBritish": 4287,
      "Ġrooms": 4288,
      "Ġjobs": 4289,
      "Ġpresented": 4290,
      "Ġbow": 4291,
      "osure": 4292,
      "fast": 4293,
      "Ġforms": 4294,
      "Ġdump": 4295,
      "ĠMa": 4296,
      "acing": 4297,
      "Ġkept": 4298,
      "Ġmotor": 4299,
      "ĠMor": 4300,
      "Ġvisual": 4301,
      "Ġcomments": 4302,
      "ask": 4303,
      "Ġseeing": 4304,
      "Ġfan": 4305,
      "Ġheavy": 4306,
      "eds": 4307,
      "cel": 4308,
      "Ġshot": 4309,
      "Ġsteel": 4310,
      "Ġaudience": 4311,
      "Ġexplore": 4312,
      "33": 4313,
      "Ġnamed": 4314,
      "Ġdiet": 4315,
      "Ġadop": 4316,
      "mark": 4317,
      "Ġfish": 4318,
      "pm": 4319,
      "alt": 4320,
      "ĠCr": 4321,
      "Ġstar": 4322,
      "ĠRead": 4323,
      "eria": 4324,
      "ĠTex": 4325,
      "ĠInstitute": 4326,
      "Ġpackage": 4327,
      "ups": 4328,
      "Ġmetal": 4329,
      "Ġvolunte": 4330,
      "Ġexercise": 4331,
      "Ġcast": 4332,
      "ixt": 4333,
      "Ġquarter": 4334,
      "ĠSupp": 4335,
      "Ġtheme": 4336,
      "nding": 4337,
      "itors": 4338,
      "Ġreference": 4339,
      "Ġdete": 4340,
      "Ġkeeping": 4341,
      "ĠMonday": 4342,
      "ĠHot": 4343,
      "Ġcheap": 4344,
      "ĠJack": 4345,
      "inese": 4346,
      "Ġevening": 4347,
      "osing": 4348,
      "Ġsmooth": 4349,
      "rief": 4350,
      "ught": 4351,
      "rey": 4352,
      "Ġfashion": 4353,
      "Ġreflect": 4354,
      "Ġnames": 4355,
      "Ġspring": 4356,
      "using": 4357,
      "ĠBen": 4358,
      "Ġcompre": 4359,
      "ĠAP": 4360,
      "28": 4361,
      "ĠSub": 4362,
      "top": 4363,
      "Ġvoice": 4364,
      "ĠArch": 4365,
      "Ġvisitors": 4366,
      "Ġhusband": 4367,
      "apter": 4368,
      "Ġselected": 4369,
      "ortunately": 4370,
      "Ġwaste": 4371,
      "works": 4372,
      "Ġrepe": 4373,
      "Ġcolour": 4374,
      "Ġsmaller": 4375,
      "Ġpush": 4376,
      "Ġeight": 4377,
      "Ġhelpful": 4378,
      "Ġplenty": 4379,
      "Ġmemory": 4380,
      "LE": 4381,
      "Ġpractices": 4382,
      "ĠManagement": 4383,
      "vision": 4384,
      "orial": 4385,
      "rees": 4386,
      "ĠWord": 4387,
      "Ġconference": 4388,
      "Ġwire": 4389,
      "Ġoperation": 4390,
      "ĠDem": 4391,
      "Ġingred": 4392,
      "Ġrelevant": 4393,
      "95": 4394,
      "Ġdriver": 4395,
      "Ġforget": 4396,
      "Ġadding": 4397,
      "eed": 4398,
      "ĠYear": 4399,
      "ellow": 4400,
      "Ġtechniques": 4401,
      "ursday": 4402,
      "27": 4403,
      "Ġremind": 4404,
      "Ġfigure": 4405,
      "text": 4406,
      "Ġfunds": 4407,
      "Ġcouldn": 4408,
      "Ġformat": 4409,
      "ĠCare": 4410,
      "Ġ90": 4411,
      "Ġaccommod": 4412,
      "Ġadvance": 4413,
      "Ġsitu": 4414,
      "Here": 4415,
      "Ġdesigns": 4416,
      "Ġbeauty": 4417,
      "):": 4418,
      "ĠOb": 4419,
      "Ġdrug": 4420,
      "ĠMet": 4421,
      "Ġsto": 4422,
      "sey": 4423,
      "Ġflu": 4424,
      "Ġguests": 4425,
      "Ġdang": 4426,
      "Ġmulti": 4427,
      "Ġarrange": 4428,
      "Ġexpensive": 4429,
      "Ġwat": 4430,
      "Ġbeg": 4431,
      "ĠPost": 4432,
      "Ġveget": 4433,
      "za": 4434,
      "Ġconnected": 4435,
      "Ġmer": 4436,
      "ĠMo": 4437,
      "raw": 4438,
      "mail": 4439,
      "Ġcream": 4440,
      "âĢ¢": 4441,
      "Ġstation": 4442,
      "They": 4443,
      "Ġcoverage": 4444,
      "Ġinstallation": 4445,
      "Ġsurg": 4446,
      "Ġdirector": 4447,
      "Ġlinks": 4448,
      "Ġbrain": 4449,
      "actions": 4450,
      "Ġfee": 4451,
      "Ġcentral": 4452,
      "box": 4453,
      "Ġsustain": 4454,
      "ĠSk": 4455,
      "Ġnumerous": 4456,
      "ym": 4457,
      "Ġgone": 4458,
      "isation": 4459,
      "UR": 4460,
      "ato": 4461,
      "icies": 4462,
      ".)": 4463,
      "Ġsources": 4464,
      "Ġdecide": 4465,
      "ĠProdu": 4466,
      "ĠWilliam": 4467,
      "Ad": 4468,
      "Ġice": 4469,
      "ĠMem": 4470,
      "Ġotherwise": 4471,
      "Ġdecisions": 4472,
      "ĠClass": 4473,
      "Ġagreement": 4474,
      "Ġvideos": 4475,
      "Ġstatus": 4476,
      "icine": 4477,
      "rical": 4478,
      "ĠIns": 4479,
      "Ġolder": 4480,
      "Ġran": 4481,
      "Ġchanging": 4482,
      "Ġimpl": 4483,
      "Ġseparate": 4484,
      "bed": 4485,
      "Ġoperating": 4486,
      "Ġfans": 4487,
      "Ġproud": 4488,
      "ĠAv": 4489,
      "Ġscen": 4490,
      "Ġsector": 4491,
      "!!!": 4492,
      "ĠST": 4493,
      "ado": 4494,
      "fit": 4495,
      "Ġtruth": 4496,
      "Ġgall": 4497,
      "Ġoperations": 4498,
      "Ġdied": 4499,
      "Ġ80": 4500,
      "ocr": 4501,
      "free": 4502,
      "Ġbiggest": 4503,
      "Ġmedium": 4504,
      "Ġinvestig": 4505,
      "Ġtend": 4506,
      "ishes": 4507,
      "rael": 4508,
      "Ġdocuments": 4509,
      "Ġmentioned": 4510,
      "44": 4511,
      "olic": 4512,
      "ship": 4513,
      "Ġsuff": 4514,
      "Ġvision": 4515,
      "Ġbill": 4516,
      "azon": 4517,
      "Ġmovement": 4518,
      "omet": 4519,
      "Your": 4520,
      "Ġseven": 4521,
      "Un": 4522,
      "ĠDavid": 4523,
      "ooper": 4524,
      "Ġlaunch": 4525,
      "ago": 4526,
      "rupt": 4527,
      "Ġapproxim": 4528,
      "Ġmist": 4529,
      "ĠGeneral": 4530,
      "pet": 4531,
      "Ġstick": 4532,
      "Ġfees": 4533,
      "Ġluck": 4534,
      "Ġmaximum": 4535,
      "ĠPaul": 4536,
      "ĠEngine": 4537,
      "Ġir": 4538,
      "Ġobv": 4539,
      "Ġreality": 4540,
      "Ġ2009": 4541,
      "Ġcells": 4542,
      "Ġclassic": 4543,
      "Ġwaiting": 4544,
      "Ġconcent": 4545,
      "ĠSing": 4546,
      "Ġcontinued": 4547,
      "Ġcalc": 4548,
      "Ġpassed": 4549,
      "ona": 4550,
      "arge": 4551,
      "Ġleader": 4552,
      "ĠWhy": 4553,
      "Ġ2008": 4554,
      "hop": 4555,
      "Ġrare": 4556,
      "BC": 4557,
      "TS": 4558,
      "ss": 4559,
      "Ġwrote": 4560,
      "ĠBank": 4561,
      "Ġbright": 4562,
      "ĠMake": 4563,
      "Ġalbum": 4564,
      "ception": 4565,
      "Ġanti": 4566,
      "icon": 4567,
      "Ġcharacters": 4568,
      "Ġarchitect": 4569,
      "Ġresidents": 4570,
      "Ġwebsites": 4571,
      "Ġeconomy": 4572,
      "Ġsched": 4573,
      "Ġbecomes": 4574,
      "Pl": 4575,
      "Ġswitch": 4576,
      "Ġdescribed": 4577,
      "Ġcore": 4578,
      "leg": 4579,
      "Ġrecords": 4580,
      "Ġmilitary": 4581,
      "craft": 4582,
      "amm": 4583,
      "ocolate": 4584,
      "ĠTexas": 4585,
      "ech": 4586,
      "ternal": 4587,
      "Ġdiagn": 4588,
      "Ġclaims": 4589,
      "Ġencourage": 4590,
      "ĠSoc": 4591,
      "Ġpsych": 4592,
      "ĠBecause": 4593,
      "Ġlose": 4594,
      "asure": 4595,
      "Ġvalid": 4596,
      "Ġworkers": 4597,
      "abilities": 4598,
      "Ġrob": 4599,
      "Ġrecip": 4600,
      "Ġcombination": 4601,
      "Ġtaste": 4602,
      "oma": 4603,
      "Ġapplied": 4604,
      "ĠAnge": 4605,
      "Ġfem": 4606,
      "Ġdirection": 4607,
      "Ġupgra": 4608,
      "Ġ31": 4609,
      "ĠPhot": 4610,
      "Ġtempl": 4611,
      "21": 4612,
      "cket": 4613,
      "Ġmap": 4614,
      "Ġillust": 4615,
      "Ġspect": 4616,
      "Ġdiam": 4617,
      "ĠOF": 4618,
      "Ġfamous": 4619,
      "ĠChristian": 4620,
      "Ġhappens": 4621,
      "Ġcaused": 4622,
      "IM": 4623,
      "Ġfol": 4624,
      "Ġunf": 4625,
      "Ġalternative": 4626,
      "Ġcompar": 4627,
      "Ġdisapp": 4628,
      "ĠThursday": 4629,
      "Ġcloud": 4630,
      "Ġhttp": 4631,
      "ÂŃ": 4632,
      "Ġrat": 4633,
      "Ġpolicies": 4634,
      "Ġforeign": 4635,
      "Ġselling": 4636,
      "Ġprovider": 4637,
      "ĠDown": 4638,
      "Ġflat": 4639,
      "Ġperformed": 4640,
      "Ġbecoming": 4641,
      "Ġfocused": 4642,
      "bl": 4643,
      "Ġsea": 4644,
      "apers": 4645,
      "ĠChinese": 4646,
      "Ġscore": 4647,
      "500": 4648,
      "ĠRock": 4649,
      "Ġdoctor": 4650,
      "ĠOver": 4651,
      "Ġ197": 4652,
      "ĠMary": 4653,
      "Ġexcited": 4654,
      "ads": 4655,
      "Ġ?": 4656,
      "Ġestim": 4657,
      "Ġsociety": 4658,
      "ervation": 4659,
      "Ġrestaurant": 4660,
      "ented": 4661,
      "itar": 4662,
      "Ġdatab": 4663,
      "IA": 4664,
      "Ġdur": 4665,
      "ferences": 4666,
      "Ġprocesses": 4667,
      "asy": 4668,
      "ĠPlan": 4669,
      "www": 4670,
      "Ġspending": 4671,
      "ĠBay": 4672,
      "ĠJew": 4673,
      "uesday": 4674,
      "uable": 4675,
      "Ġlux": 4676,
      "inding": 4677,
      "Ġmagn": 4678,
      "ordin": 4679,
      "Ġindependent": 4680,
      "OP": 4681,
      "Ġpump": 4682,
      "Ġessay": 4683,
      "OW": 4684,
      "Ġmajority": 4685,
      "Ġbought": 4686,
      "ĠWed": 4687,
      "Ġmeant": 4688,
      "Ġconfig": 4689,
      "ston": 4690,
      "ĠHy": 4691,
      "Ġdinner": 4692,
      "Ġthousands": 4693,
      "Ġdisp": 4694,
      "ĠClick": 4695,
      "ĠEducation": 4696,
      "Ġhappened": 4697,
      "Ġminimum": 4698,
      "Ġfold": 4699,
      "Ġcontinues": 4700,
      "Ġinstalled": 4701,
      "Ġtoward": 4702,
      "Ġ...": 4703,
      "ĠSa": 4704,
      "iled": 4705,
      "NA": 4706,
      "Ġshowing": 4707,
      "Ġwhatever": 4708,
      "ĠSl": 4709,
      "Ġthus": 4710,
      "ĠWater": 4711,
      "Ġcompl": 4712,
      "ĠCommission": 4713,
      "ĠTrump": 4714,
      "Ġsounds": 4715,
      "Ġassistance": 4716,
      "Ġpair": 4717,
      "Ġsets": 4718,
      "Ġstreet": 4719,
      "ĠVol": 4720,
      "ĠLife": 4721,
      "Ġnovel": 4722,
      "ĠAlthough": 4723,
      "Ġeating": 4724,
      "Ġfederal": 4725,
      "Ġremains": 4726,
      "Ġgrant": 4727,
      "Ġteacher": 4728,
      "ĠDirector": 4729,
      "iliar": 4730,
      "Ġteachers": 4731,
      "unning": 4732,
      "Ġexpress": 4733,
      "aven": 4734,
      "icate": 4735,
      "ructure": 4736,
      "umin": 4737,
      "Ġdecl": 4738,
      "Ġmanager": 4739,
      "Ġvan": 4740,
      "Ġworry": 4741,
      "Ġrecipe": 4742,
      "Ġartist": 4743,
      "Ġmortgage": 4744,
      "vention": 4745,
      "aming": 4746,
      "ĠLake": 4747,
      "ĠScience": 4748,
      "Ġpanel": 4749,
      "Ġsav": 4750,
      "ĠUSA": 4751,
      "IV": 4752,
      "inger": 4753,
      "ĠPM": 4754,
      "Ġopened": 4755,
      "Ġfabric": 4756,
      "uled": 4757,
      "Ġminute": 4758,
      "Ġextensive": 4759,
      "vere": 4760,
      "ĠCong": 4761,
      "Ġcalls": 4762,
      "Ġaudio": 4763,
      "anta": 4764,
      "Ġcorner": 4765,
      "ĠMart": 4766,
      "Ġsnow": 4767,
      "Ġcomprehens": 4768,
      "Thanks": 4769,
      "Ġsch": 4770,
      "ĠID": 4771,
      "Ġcorporate": 4772,
      "Ġprocessing": 4773,
      "iration": 4774,
      "ĠVis": 4775,
      "Ġrestrict": 4776,
      "ifts": 4777,
      "Ġdistance": 4778,
      "Ġachie": 4779,
      "Ġadapt": 4780,
      "icken": 4781,
      "ocal": 4782,
      "....": 4783,
      "Ġgeneration": 4784,
      "pond": 4785,
      "ĠMount": 4786,
      "Ġapart": 4787,
      "gment": 4788,
      "ĠPower": 4789,
      "ĠLord": 4790,
      "ĠRiver": 4791,
      "Ġleaves": 4792,
      "Ġexciting": 4793,
      "mal": 4794,
      "Ġpresence": 4795,
      "Ġearth": 4796,
      "ĠAdd": 4797,
      "Ġsuitable": 4798,
      "Ġstarts": 4799,
      "ĠSom": 4800,
      "Ġproperly": 4801,
      "tion": 4802,
      "Ġanimals": 4803,
      "Ġdepartment": 4804,
      "emporary": 4805,
      "ĠRoad": 4806,
      "Ġsenior": 4807,
      "lled": 4808,
      "Ġdetailed": 4809,
      "Ġinjury": 4810,
      "ĠIsrael": 4811,
      "ĠCheck": 4812,
      "ĠMag": 4813,
      "ĠJames": 4814,
      "Ġrain": 4815,
      "Ġposts": 4816,
      "Ġbon": 4817,
      "Ġaffordable": 4818,
      "Ġbrother": 4819,
      "Ġfantastic": 4820,
      "bour": 4821,
      "cean": 4822,
      "Ġquant": 4823,
      "yer": 4824,
      "ĠCur": 4825,
      "Ġprincip": 4826,
      "CA": 4827,
      "Ġmarkets": 4828,
      "Ġdaughter": 4829,
      "Ġagency": 4830,
      "ae": 4831,
      "Ġbeach": 4832,
      "ĠUse": 4833,
      "ĠCam": 4834,
      "Ġ29": 4835,
      "Ġoutdoor": 4836,
      "Ġpractical": 4837,
      "Ġbattery": 4838,
      "ÑĤ": 4839,
      "Ġenjoyed": 4840,
      "Ġtypically": 4841,
      "Ġleadership": 4842,
      "Ġlock": 4843,
      "omin": 4844,
      "Ġtopic": 4845,
      "Ġawesome": 4846,
      "Ġbrings": 4847,
      "Se": 4848,
      "illa": 4849,
      "Ġunits": 4850,
      "36": 4851,
      "Ġupdated": 4852,
      "29": 4853,
      "ĠSun": 4854,
      "ĠJer": 4855,
      "ĠUs": 4856,
      "Ġrecommended": 4857,
      "Ġsam": 4858,
      "Ġartists": 4859,
      "Ġmanaged": 4860,
      "Ġbul": 4861,
      "Ġleaving": 4862,
      "Ġcabin": 4863,
      "De": 4864,
      "Ġfilled": 4865,
      "Ġmanner": 4866,
      "Ġcomponents": 4867,
      "iers": 4868,
      "miss": 4869,
      "hi": 4870,
      "pid": 4871,
      "Ġsouth": 4872,
      "ĠSecurity": 4873,
      "ĠEv": 4874,
      "Ġder": 4875,
      "Ġegg": 4876,
      "ĠBill": 4877,
      "ails": 4878,
      "Ġeth": 4879,
      "Ġunc": 4880,
      "ĠAfrica": 4881,
      "omb": 4882,
      "Ġenvironmental": 4883,
      "amily": 4884,
      "ĠĠ": 4885,
      "Ġwww": 4886,
      "Ġstrategies": 4887,
      "Ġspecies": 4888,
      "Ġ70": 4889,
      "essions": 4890,
      "ĠFore": 4891,
      "Ġguess": 4892,
      "ette": 4893,
      "icians": 4894,
      "Ġconcerns": 4895,
      "Ġclosed": 4896,
      "ota": 4897,
      "ĠSur": 4898,
      "Ġpresident": 4899,
      "Ġsecret": 4900,
      "ĠLove": 4901,
      "Ġjump": 4902,
      "Ġdram": 4903,
      "Ġruns": 4904,
      "ifying": 4905,
      "gal": 4906,
      "ĠTuesday": 4907,
      "Ġjoint": 4908,
      "inct": 4909,
      "ĠElect": 4910,
      "Ġabsolutely": 4911,
      "Ġanc": 4912,
      "Ġclearly": 4913,
      "no": 4914,
      "ĠQue": 4915,
      "ror": 4916,
      "Ġpal": 4917,
      "Ġtransform": 4918,
      "Don": 4919,
      "ipl": 4920,
      "Ġevalu": 4921,
      "Ġslightly": 4922,
      "Ð½": 4923,
      "Ġwouldn": 4924,
      "imb": 4925,
      "Ġcasino": 4926,
      "ĠFoundation": 4927,
      "ĠIsland": 4928,
      "Ġdut": 4929,
      "Ġdesk": 4930,
      "Ġfacility": 4931,
      "ĠApple": 4932,
      "DA": 4933,
      "ĠPR": 4934,
      "going": 4935,
      "ander": 4936,
      "Ġwilling": 4937,
      "Ġrelationships": 4938,
      "Ġacademic": 4939,
      "fficient": 4940,
      "She": 4941,
      "Ġdu": 4942,
      "55": 4943,
      "ĠCamp": 4944,
      "Ġthoughts": 4945,
      "Ġshowed": 4946,
      "Ġprepare": 4947,
      "obile": 4948,
      "Ġspl": 4949,
      "Ġerror": 4950,
      "Ġimportance": 4951,
      "Ġcentre": 4952,
      "Ġvehicles": 4953,
      "den": 4954,
      "point": 4955,
      "ĠGlo": 4956,
      "Ġcatch": 4957,
      "ĠMal": 4958,
      "Ġapproximately": 4959,
      "Ġthrow": 4960,
      "Ġallowing": 4961,
      "night": 4962,
      "Ġship": 4963,
      "Ġautomatically": 4964,
      "ĠPublic": 4965,
      "osen": 4966,
      "outhern": 4967,
      "Ġtow": 4968,
      "oe": 4969,
      "Ġargu": 4970,
      "ĠEngland": 4971,
      "arrant": 4972,
      "Ġunless": 4973,
      "Ġscale": 4974,
      "Ġdebt": 4975,
      "CC": 4976,
      "Ġclimate": 4977,
      "Ġdynam": 4978,
      "Ġbusy": 4979,
      "ĠNews": 4980,
      "estic": 4981,
      "Ġexpertise": 4982,
      "Ġenhance": 4983,
      "Ġregistered": 4984,
      "Ġhospital": 4985,
      "Ġsym": 4986,
      "Ġlocations": 4987,
      "osition": 4988,
      "Ġpredict": 4989,
      "nesday": 4990,
      "ĠTop": 4991,
      "Ġ=": 4992,
      "Why": 4993,
      "Ġvolume": 4994,
      "men": 4995,
      "ĠMaster": 4996,
      "Ġshipping": 4997,
      "Ġfuel": 4998,
      "Ġserving": 4999,
      "Ġedge": 5000,
      "Ġpreviously": 5001,
      "Ġdoors": 5002,
      "ĠSil": 5003,
      "Ġtrees": 5004,
      "Ġhonest": 5005,
      "Ġstores": 5006,
      "Ġdiscussion": 5007,
      "Ġcitiz": 5008,
      "ÑĢ": 5009,
      "Ġton": 5010,
      "Ġment": 5011,
      "ĠRich": 5012,
      "Ġcategory": 5013,
      "osis": 5014,
      "Ġchemical": 5015,
      "Ġlabor": 5016,
      "Ġspecifically": 5017,
      "PA": 5018,
      "Ġknows": 5019,
      "ĠRepublic": 5020,
      "itness": 5021,
      "Ġcris": 5022,
      "SS": 5023,
      "Ġregister": 5024,
      "ĠBre": 5025,
      "Ġresponsibility": 5026,
      "ĠChild": 5027,
      "ĠMiss": 5028,
      "Ġinput": 5029,
      "Ġride": 5030,
      "Ġphotograph": 5031,
      "how": 5032,
      "ĠTO": 5033,
      "Ġhyd": 5034,
      "Ġwalking": 5035,
      "Ġcities": 5036,
      "Ġleads": 5037,
      "Ġdistrict": 5038,
      "othes": 5039,
      "alls": 5040,
      "ĠPeople": 5041,
      "Ġreliable": 5042,
      "Some": 5043,
      "Ġinternal": 5044,
      "Ñģ": 5045,
      "Ġgoods": 5046,
      "Ġmenu": 5047,
      "Ġoutput": 5048,
      "cles": 5049,
      "ĠBig": 5050,
      "tered": 5051,
      "ano": 5052,
      "Ġlighting": 5053,
      "ĠSum": 5054,
      "Ġpromote": 5055,
      "unction": 5056,
      "rab": 5057,
      "Ġwatching": 5058,
      "48": 5059,
      "ivered": 5060,
      "Ġ2007": 5061,
      "ĠDevelopment": 5062,
      "rian": 5063,
      "ĠRel": 5064,
      "Ġappears": 5065,
      "Ġstone": 5066,
      "uries": 5067,
      "ĠWood": 5068,
      "nel": 5069,
      "Ġthick": 5070,
      "ĠOpen": 5071,
      "poses": 5072,
      "Ġwindows": 5073,
      "uce": 5074,
      "Ġlovely": 5075,
      "Ġlaun": 5076,
      "Ġconduct": 5077,
      "39": 5078,
      "CH": 5079,
      "pan": 5080,
      "RA": 5081,
      "outs": 5082,
      "Ġplastic": 5083,
      "ĠVe": 5084,
      "Ġdining": 5085,
      "Ġtechnologies": 5086,
      "Ġlisten": 5087,
      "Ġactions": 5088,
      "Ġsample": 5089,
      "Ġhom": 5090,
      "Ġsquare": 5091,
      "66": 5092,
      "Ġchair": 5093,
      "ĠOh": 5094,
      "ĠIts": 5095,
      "Ġissued": 5096,
      "Ġhousing": 5097,
      "Ġcultural": 5098,
      "Ġinnovative": 5099,
      "New": 5100,
      "rive": 5101,
      "ĠSam": 5102,
      "Ġreached": 5103,
      "ĠMot": 5104,
      "ĠLear": 5105,
      "Ġcombined": 5106,
      "Ġcivil": 5107,
      "Ġaspects": 5108,
      "Ġfeedback": 5109,
      "Ġign": 5110,
      "aser": 5111,
      "Ġdepos": 5112,
      "Ġchoices": 5113,
      "ĠSociety": 5114,
      "Ġingredients": 5115,
      "Ġmotiv": 5116,
      "ĠStar": 5117,
      "Ġseek": 5118,
      "Ġdrink": 5119,
      "Ġframe": 5120,
      "Ġaccompl": 5121,
      "From": 5122,
      "ugg": 5123,
      "ĠPet": 5124,
      "Ġboy": 5125,
      "Ġindustrial": 5126,
      "Ġgirl": 5127,
      "oles": 5128,
      "Ġrule": 5129,
      "ĠPlay": 5130,
      "log": 5131,
      "Ġinstance": 5132,
      "ĠBuild": 5133,
      "Ġsugar": 5134,
      "ĠProfess": 5135,
      "ĠPhil": 5136,
      "ĠAM": 5137,
      "Ġsem": 5138,
      "Ġarm": 5139,
      "ampions": 5140,
      "Ġneighbor": 5141,
      "Ġbehavior": 5142,
      "Ġcart": 5143,
      "Ġappeal": 5144,
      "Ġnegative": 5145,
      "rd": 5146,
      "Ġnorth": 5147,
      "Ġaccident": 5148,
      "ĠâĢ¦": 5149,
      "Ġinterior": 5150,
      "prise": 5151,
      "ĠMill": 5152,
      "aj": 5153,
      "Ġputting": 5154,
      "Ġdial": 5155,
      "ĠCustom": 5156,
      "Ġinfo": 5157,
      "Ġflowers": 5158,
      "ĠAND": 5159,
      "ĠHist": 5160,
      "Ġourselves": 5161,
      "ĠTheir": 5162,
      "Ġdepending": 5163,
      "LC": 5164,
      "Ġseat": 5165,
      "Ġfruit": 5166,
      "Ġlunch": 5167,
      "Ġkid": 5168,
      "Ġpurposes": 5169,
      "Ġarticles": 5170,
      "Ġbuildings": 5171,
      "known": 5172,
      "Thank": 5173,
      "Ġlaws": 5174,
      "Ġmostly": 5175,
      "Ġproceed": 5176,
      "Ġvary": 5177,
      "reek": 5178,
      "ĠStr": 5179,
      "Ġpremium": 5180,
      "paper": 5181,
      "antic": 5182,
      "ĠValley": 5183,
      "ĠBeach": 5184,
      "ĠCall": 5185,
      "Ġbird": 5186,
      "Ġapproved": 5187,
      "ĠCommunity": 5188,
      "37": 5189,
      "Ġcup": 5190,
      "Ġjournal": 5191,
      "Ġemergency": 5192,
      "ady": 5193,
      "Ġattor": 5194,
      "Ne": 5195,
      "iders": 5196,
      "Ġexchange": 5197,
      "Ar": 5198,
      "Not": 5199,
      "Ġbrands": 5200,
      "what": 5201,
      "oration": 5202,
      "fol": 5203,
      "Ġdelicious": 5204,
      "Ġcontext": 5205,
      "Ġven": 5206,
      "ĠLo": 5207,
      "Ġ35": 5208,
      "ront": 5209,
      "DF": 5210,
      "ulty": 5211,
      "ĠCommit": 5212,
      "ilit": 5213,
      "Ġring": 5214,
      "rete": 5215,
      "state": 5216,
      "hent": 5217,
      "Ġjoined": 5218,
      "ĠWednesday": 5219,
      "Ġexplain": 5220,
      "hab": 5221,
      "Ġrub": 5222,
      "Ġanywhere": 5223,
      "Ġtrail": 5224,
      "azine": 5225,
      "with": 5226,
      "ya": 5227,
      "ario": 5228,
      "Ġchocolate": 5229,
      "lor": 5230,
      "Ġprofit": 5231,
      "Con": 5232,
      "Des": 5233,
      "uman": 5234,
      "Ġguys": 5235,
      "Ġcomprehensive": 5236,
      "Ġteach": 5237,
      "ipp": 5238,
      "Ġsport": 5239,
      "friend": 5240,
      "never": 5241,
      "mes": 5242,
      "Ġfunctions": 5243,
      "Ġfamiliar": 5244,
      "Ġsolar": 5245,
      "Ġguarantee": 5246,
      "Ġparking": 5247,
      "ĠCert": 5248,
      "Ġ500": 5249,
      "water": 5250,
      "Ġdie": 5251,
      "Ġfootball": 5252,
      "38": 5253,
      "olars": 5254,
      "ĠWall": 5255,
      "Ġcircum": 5256,
      "Ġprocedure": 5257,
      "Ġradio": 5258,
      "igence": 5259,
      "Ġshower": 5260,
      "ĠJour": 5261,
      "Ġfavour": 5262,
      "ĠGerman": 5263,
      "47": 5264,
      "add": 5265,
      "Ġpoll": 5266,
      "Ġdelivered": 5267,
      "Ġcrow": 5268,
      "arp": 5269,
      "ĠSocial": 5270,
      "Ġbrief": 5271,
      "Ġproviders": 5272,
      "BA": 5273,
      "Ġ*": 5274,
      "Ġquot": 5275,
      "which": 5276,
      "Ġinspired": 5277,
      "gn": 5278,
      "Ġprot": 5279,
      "Ġnotes": 5280,
      "hetic": 5281,
      "iance": 5282,
      "noon": 5283,
      "Ġtickets": 5284,
      "Ġagent": 5285,
      "Ġtrial": 5286,
      "Ġtotally": 5287,
      "Ġsequ": 5288,
      "ĠMichael": 5289,
      "ĠFind": 5290,
      "rastructure": 5291,
      "ĠDistrict": 5292,
      "Ġopinion": 5293,
      "ĠWork": 5294,
      "Ġbike": 5295,
      "Ġcommitted": 5296,
      "ĠAmazon": 5297,
      "Ġap": 5298,
      "ĠToday": 5299,
      "Ġenable": 5300,
      "Can": 5301,
      "TH": 5302,
      "Ġdespite": 5303,
      "Ġconstruct": 5304,
      "Ġraised": 5305,
      "PR": 5306,
      "ga": 5307,
      "Ġremoved": 5308,
      "ĠCap": 5309,
      "ĠMex": 5310,
      "Ġsurvey": 5311,
      "Ã¡": 5312,
      "orthern": 5313,
      "Ġsurgery": 5314,
      "Ġasking": 5315,
      "ifications": 5316,
      "rier": 5317,
      "Ġelement": 5318,
      "ĠRoy": 5319,
      "ĠExp": 5320,
      "ĠFire": 5321,
      "ĠPay": 5322,
      "Ġvaluable": 5323,
      "een": 5324,
      "mosp": 5325,
      "ĠData": 5326,
      "ĠCentral": 5327,
      "Ġcompetitive": 5328,
      "Ġprofile": 5329,
      "Ġuniversity": 5330,
      "td": 5331,
      "zen": 5332,
      "Ġrental": 5333,
      "isco": 5334,
      "Ġaccounts": 5335,
      "life": 5336,
      "Ġended": 5337,
      "Ġreturned": 5338,
      "ĠGovernment": 5339,
      "Ġmental": 5340,
      "umber": 5341,
      "Ġdecre": 5342,
      "ki": 5343,
      "ĠVir": 5344,
      "Ġeducational": 5345,
      "ĠTor": 5346,
      "rain": 5347,
      "ĠMain": 5348,
      "Ġvote": 5349,
      "cohol": 5350,
      "ĠBlue": 5351,
      "ĠAS": 5352,
      "rim": 5353,
      "Ġauto": 5354,
      "Ġconfidence": 5355,
      "ĠCard": 5356,
      "Ġfunding": 5357,
      "Ġgather": 5358,
      "Ġmine": 5359,
      "Ġfields": 5360,
      "Ġdatabase": 5361,
      "Ġresource": 5362,
      "ĠGrand": 5363,
      "net": 5364,
      "Ġnor": 5365,
      "ĠUnder": 5366,
      "Ġreput": 5367,
      "Ġlegis": 5368,
      "Ġadults": 5369,
      "By": 5370,
      "eared": 5371,
      "Ġemp": 5372,
      "Ġrapid": 5373,
      "ĠHel": 5374,
      "Ġpossibly": 5375,
      "ograp": 5376,
      "Ġparticipants": 5377,
      "ĠSpecial": 5378,
      "Ġanimal": 5379,
      "Ġadvertising": 5380,
      "ola": 5381,
      "Ġaid": 5382,
      "Ġoccup": 5383,
      "Ġmeasures": 5384,
      "ĠCentre": 5385,
      "gl": 5386,
      "ĠInformation": 5387,
      "BS": 5388,
      "Ġlibrary": 5389,
      "ĠGermany": 5390,
      "Ġadministration": 5391,
      "Ġeventually": 5392,
      "Ġsympt": 5393,
      "reens": 5394,
      "Ġassemb": 5395,
      "Ġdish": 5396,
      "Ġer": 5397,
      "apos": 5398,
      "Ġvisiting": 5399,
      "ĠLight": 5400,
      "ĠOnline": 5401,
      "ĠTechnology": 5402,
      "itz": 5403,
      "ĠThom": 5404,
      "Ġsongs": 5405,
      "Ġtherapy": 5406,
      "liance": 5407,
      "Ġfaster": 5408,
      "ĠUN": 5409,
      "Ġlights": 5410,
      "IR": 5411,
      "ENT": 5412,
      "Ñĸ": 5413,
      "ĠSol": 5414,
      "ria": 5415,
      "Are": 5416,
      "OD": 5417,
      "Ġemployee": 5418,
      "Ġupdates": 5419,
      "Ġcrus": 5420,
      "Ð¾Ð": 5421,
      "ĠAcadem": 5422,
      "Ġtast": 5423,
      "Ġlicense": 5424,
      "cap": 5425,
      "à¤": 5426,
      "Ġtun": 5427,
      "Ġmanual": 5428,
      "Ġintroduced": 5429,
      "ĠMicrosoft": 5430,
      "Ġsizes": 5431,
      "Ġdeals": 5432,
      "atin": 5433,
      "Ġfle": 5434,
      "adian": 5435,
      "Ġinfluence": 5436,
      "ĠTur": 5437,
      "estyle": 5438,
      "Ġcoast": 5439,
      "Ġsymb": 5440,
      "Ġsalt": 5441,
      "orough": 5442,
      "Ġliqu": 5443,
      "ĠParty": 5444,
      "Ġseconds": 5445,
      "ician": 5446,
      "However": 5447,
      "ĠYOU": 5448,
      "Ġhar": 5449,
      "ucle": 5450,
      "erry": 5451,
      "Ġ45": 5452,
      "Ġshap": 5453,
      "Ġyouth": 5454,
      "ĠSto": 5455,
      "Ġrestaurants": 5456,
      "Ġì": 5457,
      "Just": 5458,
      "ĠMil": 5459,
      "Ġcovers": 5460,
      "Ġelimin": 5461,
      "Ġflight": 5462,
      "Ġguest": 5463,
      "Ġimproved": 5464,
      "ĠMach": 5465,
      "Ġscene": 5466,
      "ĠMel": 5467,
      "Ġpurchased": 5468,
      "Ġlicens": 5469,
      "Ġbond": 5470,
      "Ġacid": 5471,
      "ĠTem": 5472,
      "oga": 5473,
      "Ġsettings": 5474,
      "ĠMad": 5475,
      "pon": 5476,
      "Ġtransl": 5477,
      "68": 5478,
      "rics": 5479,
      "ĠMuseum": 5480,
      "ĠBoth": 5481,
      "34": 5482,
      "Ġbeat": 5483,
      "pected": 5484,
      "Ġresearc": 5485,
      "Ġeffectively": 5486,
      "Ġsignificantly": 5487,
      "Ġappreciate": 5488,
      "jo": 5489,
      "ĠLou": 5490,
      "oor": 5491,
      "Ġinterests": 5492,
      "En": 5493,
      "ĠWhether": 5494,
      "equ": 5495,
      "ĠRob": 5496,
      "Ġmonit": 5497,
      "ini": 5498,
      "ste": 5499,
      "Acc": 5500,
      "Ġweak": 5501,
      "Ġmissing": 5502,
      "Ġthread": 5503,
      "elines": 5504,
      "Ġsupported": 5505,
      "ĠDuring": 5506,
      "Ġspo": 5507,
      "Ġtight": 5508,
      "Ġholding": 5509,
      "ĠHD": 5510,
      "ĠTwitter": 5511,
      "Ġplug": 5512,
      "Ġowned": 5513,
      "Ġmessages": 5514,
      "67": 5515,
      "Ġthr": 5516,
      "list": 5517,
      "agra": 5518,
      "Ġmeal": 5519,
      "Ġoccasion": 5520,
      "Ġlived": 5521,
      "ĠMark": 5522,
      "Ġbutter": 5523,
      "Ġentertain": 5524,
      "ricult": 5525,
      "ĠFood": 5526,
      "Ġshut": 5527,
      "Ġprotein": 5528,
      "but": 5529,
      "Ġwinning": 5530,
      "Ġobl": 5531,
      "respond": 5532,
      "Ġdogs": 5533,
      "Ġapps": 5534,
      "Ġburn": 5535,
      "win": 5536,
      "Ġconsumers": 5537,
      "met": 5538,
      "Ġbrown": 5539,
      "urban": 5540,
      "Ġwarrant": 5541,
      "Ġscript": 5542,
      "Ġcalling": 5543,
      "Ġmonthly": 5544,
      "Ġdiscovered": 5545,
      "olly": 5546,
      "ĠFrance": 5547,
      "Ġdance": 5548,
      "akers": 5549,
      "Ġpin": 5550,
      "Ġrise": 5551,
      "fa": 5552,
      "ĠMusic": 5553,
      "cious": 5554,
      "Ġgun": 5555,
      "Ġfeels": 5556,
      "Ġexamples": 5557,
      "Ġdim": 5558,
      "odies": 5559,
      "Ġnurs": 5560,
      "Ġnav": 5561,
      "Ġchosen": 5562,
      "Ġsimpl": 5563,
      "ĠColor": 5564,
      "Ġcooking": 5565,
      "ĠTake": 5566,
      "Ġatmosp": 5567,
      "ĠTy": 5568,
      "rome": 5569,
      "ĠBet": 5570,
      "Ġamb": 5571,
      "cont": 5572,
      "Ġtrading": 5573,
      "ĠChic": 5574,
      "Ġafternoon": 5575,
      "oval": 5576,
      "Ġhouses": 5577,
      "ĠLike": 5578,
      "Ġreduced": 5579,
      "ĠCommittee": 5580,
      "ĠAndroid": 5581,
      "Ġraise": 5582,
      "Ġprocedures": 5583,
      "ĠOR": 5584,
      "Ġannounce": 5585,
      "Ġju": 5586,
      "ĠNor": 5587,
      "Ġtests": 5588,
      "Ġreplacement": 5589,
      "rum": 5590,
      "Ġhire": 5591,
      "Ġcommand": 5592,
      "Ġsupplies": 5593,
      "ĠMedical": 5594,
      "Ġconvenient": 5595,
      "roy": 5596,
      "Ġcomplic": 5597,
      "Ġrot": 5598,
      "Ġremote": 5599,
      "Ġswim": 5600,
      "rag": 5601,
      "ĠPress": 5602,
      "ĠAL": 5603,
      "Ġpresentation": 5604,
      "Ġlayer": 5605,
      "ĠTime": 5606,
      "Ġconsumer": 5607,
      "Res": 5608,
      "alog": 5609,
      "Ġbreakfast": 5610,
      "Le": 5611,
      "Ġorganic": 5612,
      "xy": 5613,
      "Ġtail": 5614,
      "ĠHave": 5615,
      "Phone": 5616,
      "athe": 5617,
      "Ġrealize": 5618,
      "Ġchart": 5619,
      "Ġdesire": 5620,
      "Ġ2000": 5621,
      "Ġdomain": 5622,
      "IF": 5623,
      "iner": 5624,
      "Ġreaders": 5625,
      "ĠTeam": 5626,
      "ĠIndust": 5627,
      "Ġcommitment": 5628,
      "bre": 5629,
      "Me": 5630,
      "ĠMass": 5631,
      "anish": 5632,
      "Ġsitting": 5633,
      "ĠDiv": 5634,
      "idden": 5635,
      "Ġsides": 5636,
      "loc": 5637,
      "Ġconflic": 5638,
      "OC": 5639,
      "ĠSen": 5640,
      "ĠLead": 5641,
      "69": 5642,
      "Ġiron": 5643,
      "Ġcutting": 5644,
      "ita": 5645,
      "ownt": 5646,
      "Ġphil": 5647,
      "while": 5648,
      "Ġhearing": 5649,
      "Ġseeking": 5650,
      "Ġconfirm": 5651,
      "64": 5652,
      "Ġuns": 5653,
      "Ġregularly": 5654,
      "Ġsurrounding": 5655,
      "âĦ": 5656,
      "Ġboost": 5657,
      "Ġadministr": 5658,
      "Ġdoubt": 5659,
      "amic": 5660,
      "ensions": 5661,
      "Ġglad": 5662,
      "Ġmanufacturing": 5663,
      "Ġmode": 5664,
      "Ġsigned": 5665,
      "Ġsignal": 5666,
      "Ġpaying": 5667,
      "Ġefficiency": 5668,
      "Ġfactor": 5669,
      "Ġfailure": 5670,
      "aught": 5671,
      "esterday": 5672,
      "Ġperfectly": 5673,
      "ĠCD": 5674,
      "ĠDet": 5675,
      "Ġintell": 5676,
      "ĠConst": 5677,
      "Ġbringing": 5678,
      "Ġwhom": 5679,
      "Ġ52": 5680,
      "Ġboat": 5681,
      "Ġpainting": 5682,
      "pass": 5683,
      "Ġsupporting": 5684,
      "Ġcharges": 5685,
      "Ġwheel": 5686,
      "Ġresolution": 5687,
      "aturing": 5688,
      "Ġperspective": 5689,
      "Ġappearance": 5690,
      "Ġfixed": 5691,
      "prene": 5692,
      "rition": 5693,
      "ala": 5694,
      "iveness": 5695,
      "Ġtasks": 5696,
      "Ġhistorical": 5697,
      "Ġdrivers": 5698,
      "Ġtruck": 5699,
      "ibilities": 5700,
      "ificate": 5701,
      "Ġadvis": 5702,
      "Ġseemed": 5703,
      "Ġsurf": 5704,
      "Ġcontra": 5705,
      "Ġcarefully": 5706,
      "Ġgrade": 5707,
      "Ġelectronic": 5708,
      "Ġassum": 5709,
      "Ġclinical": 5710,
      "Ġcircumst": 5711,
      "Ġrevenue": 5712,
      "Ġgreatest": 5713,
      "kin": 5714,
      "alty": 5715,
      "phas": 5716,
      "Ġaccurate": 5717,
      "ĠÃ": 5718,
      "Ġdecades": 5719,
      "Ġintended": 5720,
      "Ġinfrastructure": 5721,
      "Ġbound": 5722,
      "Once": 5723,
      "Ġinstructions": 5724,
      "Ġstret": 5725,
      "weet": 5726,
      "Ġkinds": 5727,
      "Ġparticipate": 5728,
      "Ġconversation": 5729,
      "ĠHill": 5730,
      "Ġtea": 5731,
      "Ġhundreds": 5732,
      "31": 5733,
      "alian": 5734,
      "Ġec": 5735,
      "ĠMatt": 5736,
      "Ġisland": 5737,
      "ĠJapanese": 5738,
      "Ġunivers": 5739,
      "Sc": 5740,
      "Ġforg": 5741,
      "Ġapartment": 5742,
      "etime": 5743,
      "ĠKore": 5744,
      "Ġ2006": 5745,
      "ML": 5746,
      "Ġhousehold": 5747,
      "Ñķ": 5748,
      "Ġdollars": 5749,
      "Ġtables": 5750,
      "Ġregistration": 5751,
      "Every": 5752,
      "ller": 5753,
      "Ġrecovery": 5754,
      "Ġsaving": 5755,
      "Cont": 5756,
      "reprene": 5757,
      "Ġcauses": 5758,
      "eper": 5759,
      "Ġreb": 5760,
      "Ġorders": 5761,
      "Ġsole": 5762,
      "ĠAlex": 5763,
      "Ġaccepted": 5764,
      "nect": 5765,
      "Get": 5766,
      "Ġagencies": 5767,
      "lets": 5768,
      "ias": 5769,
      "Ġepis": 5770,
      "iest": 5771,
      "Ġcable": 5772,
      "ĠEnter": 5773,
      "ĠAward": 5774,
      "luding": 5775,
      "ĠWestern": 5776,
      "Ġagg": 5777,
      "TA": 5778,
      "dem": 5779,
      "hand": 5780,
      "Ġgirls": 5781,
      "Ġlaunched": 5782,
      "77": 5783,
      "Ġofficials": 5784,
      "ĠIde": 5785,
      "ially": 5786,
      "Ġquiet": 5787,
      "Ġpatterns": 5788,
      "ĠDa": 5789,
      "Ġfoods": 5790,
      "Ġprepar": 5791,
      "Ġproposed": 5792,
      "Ġleather": 5793,
      "Ġpoly": 5794,
      "Ġengineering": 5795,
      "Ġ@": 5796,
      "ĠYes": 5797,
      "Ġcorrespond": 5798,
      "burg": 5799,
      "ulous": 5800,
      "ums": 5801,
      "Ġknowing": 5802,
      "Ġpayments": 5803,
      "Ġconsequ": 5804,
      "Ġconsidering": 5805,
      "orter": 5806,
      "Ġpure": 5807,
      "ĠAtl": 5808,
      "ius": 5809,
      "Ġminor": 5810,
      "ĠNOT": 5811,
      "Ġfo": 5812,
      "Ġcreation": 5813,
      "Ġdetermined": 5814,
      "ua": 5815,
      "eless": 5816,
      "erves": 5817,
      "Ġregul": 5818,
      "Ġidentified": 5819,
      "ĠArts": 5820,
      "Ġfreed": 5821,
      "ĠCas": 5822,
      "Ġnoted": 5823,
      "ĠLong": 5824,
      "ĠLim": 5825,
      "ensity": 5826,
      "ĠNetwork": 5827,
      "Ġdistribution": 5828,
      "Ġaffected": 5829,
      "edy": 5830,
      "Ġteeth": 5831,
      "ĠReview": 5832,
      "ĠTwo": 5833,
      "Ġshares": 5834,
      "Ġremaining": 5835,
      "Ġhealthcare": 5836,
      "ĠBur": 5837,
      "Ġsigns": 5838,
      "App": 5839,
      "imately": 5840,
      "Ġfulf": 5841,
      "âĦ¢": 5842,
      "Ġassets": 5843,
      "ĠJournal": 5844,
      "Ġrenew": 5845,
      "ĠCat": 5846,
      "ĠHol": 5847,
      "ĠExper": 5848,
      "Ġroute": 5849,
      "van": 5850,
      "Ġdepart": 5851,
      "ighter": 5852,
      "dered": 5853,
      "Ġstated": 5854,
      "Ġpray": 5855,
      "Ġdegrees": 5856,
      "iors": 5857,
      "Ġyes": 5858,
      "ĠLtd": 5859,
      "ĠAfrican": 5860,
      "Ġsessions": 5861,
      "oose": 5862,
      "Ġupload": 5863,
      "Ġâ": 5864,
      "LA": 5865,
      "Ġsubstant": 5866,
      "Ġgrown": 5867,
      "ĠBi": 5868,
      "berg": 5869,
      "ĠUnion": 5870,
      "Ġbelong": 5871,
      "ĠDownload": 5872,
      "ĠEU": 5873,
      "Ġsubmit": 5874,
      "irms": 5875,
      "anged": 5876,
      "Ġguy": 5877,
      "Ġhun": 5878,
      "road": 5879,
      "Ġarrived": 5880,
      "ĠDig": 5881,
      "ĠVict": 5882,
      "ĠStand": 5883,
      "Ġsearching": 5884,
      "Jo": 5885,
      "Ġtough": 5886,
      "yc": 5887,
      "Ġsac": 5888,
      "Ġcarried": 5889,
      "Ġdefined": 5890,
      "Ġtreated": 5891,
      "wo": 5892,
      "Ġsymptoms": 5893,
      "Ġwid": 5894,
      "uality": 5895,
      "Ġincl": 5896,
      "Ġsuccessfully": 5897,
      "Ġforest": 5898,
      "Ġincredible": 5899,
      "Ġking": 5900,
      "Ġspaces": 5901,
      "appy": 5902,
      "ĠKeep": 5903,
      "Ðł": 5904,
      "otic": 5905,
      "Ġexternal": 5906,
      "ĠiPhone": 5907,
      "Ġwriter": 5908,
      "Ġchannel": 5909,
      "Ġcro": 5910,
      "Ġneighborhood": 5911,
      "49": 5912,
      "ĠPan": 5913,
      "ĠBack": 5914,
      "Ġexcess": 5915,
      "Ġmeat": 5916,
      "UT": 5917,
      "upp": 5918,
      "ĠRad": 5919,
      "Ġresidential": 5920,
      "ĠProject": 5921,
      "Ġawareness": 5922,
      "Ġvit": 5923,
      "ĠON": 5924,
      "Ġmail": 5925,
      "Ġconstantly": 5926,
      "Ġjoy": 5927,
      "Ġbigger": 5928,
      "Ġfrequently": 5929,
      "Ġengage": 5930,
      "Ġwalls": 5931,
      "Ġbrowser": 5932,
      "Ġcompr": 5933,
      "Ġtrained": 5934,
      "Ġtwice": 5935,
      "Ġbegins": 5936,
      "vit": 5937,
      "Since": 5938,
      "inations": 5939,
      "Ġdelight": 5940,
      "Ġath": 5941,
      "poration": 5942,
      "Ġlabel": 5943,
      "SA": 5944,
      "ĠGen": 5945,
      "Ġintegrated": 5946,
      "orry": 5947,
      "Ġmini": 5948,
      "Ġtrend": 5949,
      "Ġreasonable": 5950,
      "Ġappointment": 5951,
      "ĠFil": 5952,
      "Ġkeeps": 5953,
      "ava": 5954,
      "Ġtopics": 5955,
      "cuit": 5956,
      "Ġvictim": 5957,
      "âĢĻ.": 5958,
      "Ġsupports": 5959,
      "Che": 5960,
      "Ġcrew": 5961,
      "Ġfilter": 5962,
      "Ġanswers": 5963,
      "ĠPlus": 5964,
      "ĠTest": 5965,
      "ĠTom": 5966,
      "inder": 5967,
      "Ġprivacy": 5968,
      "Ġconcerned": 5969,
      "Ġinnovation": 5970,
      "Yes": 5971,
      "Ġreceiving": 5972,
      "ĠChicago": 5973,
      "Ġur": 5974,
      "Ġrough": 5975,
      "ĠWho": 5976,
      "Ġmachines": 5977,
      "iat": 5978,
      "ĠFamily": 5979,
      "Ġauthent": 5980,
      "Ġneck": 5981,
      "Many": 5982,
      "Ġfemale": 5983,
      "atre": 5984,
      "Ġdating": 5985,
      "ĠEarth": 5986,
      "ĠNY": 5987,
      "Ġemphas": 5988,
      "Ġstanding": 5989,
      "Ġhorse": 5990,
      "ĠMer": 5991,
      "ĠCarol": 5992,
      "ĠVirgin": 5993,
      "hus": 5994,
      "weight": 5995,
      "Ġcycle": 5996,
      "ĠGeorge": 5997,
      "Ġmouth": 5998,
      "Ġresol": 5999,
      "Ġportion": 6000,
      "ĠOld": 6001,
      "Ġloans": 6002,
      "Ġcontemporary": 6003,
      "Ġkill": 6004,
      "Ġmarried": 6005,
      "ds": 6006,
      "pes": 6007,
      "MA": 6008,
      "spe": 6009,
      "Ġ300": 6010,
      "ĠOrgan": 6011,
      "ĠContact": 6012,
      "ĠCA": 6013,
      "Ġ2005": 6014,
      "Ġtut": 6015,
      "Ġplays": 6016,
      "Ġphase": 6017,
      "ĠConference": 6018,
      "Ġscientific": 6019,
      "Ġchicken": 6020,
      "Ġnegot": 6021,
      "Ġmountain": 6022,
      "Ġfly": 6023,
      "oses": 6024,
      "Ġelectrical": 6025,
      "Ġmatters": 6026,
      "Ġcoach": 6027,
      "Ġinstitutions": 6028,
      "Ġsymbol": 6029,
      ");": 6030,
      "Ġsheet": 6031,
      "ĠAustralian": 6032,
      "cher": 6033,
      "ĠHam": 6034,
      "ĠTherefore": 6035,
      "Ġholds": 6036,
      "ĠSqu": 6037,
      "Ġpositions": 6038,
      "ÃŃ": 6039,
      "aste": 6040,
      "Ġconver": 6041,
      "Ġlifestyle": 6042,
      "Ġdumpster": 6043,
      "Ġped": 6044,
      "Ġbread": 6045,
      "ĠBer": 6046,
      "Ġaccessible": 6047,
      "Ġassessment": 6048,
      "Ġbless": 6049,
      "ĠShow": 6050,
      "ĠSand": 6051,
      "Ġgro": 6052,
      "ĠIP": 6053,
      "ĠProte": 6054,
      "Ġcitizens": 6055,
      "ĠAsia": 6056,
      "Ġplanned": 6057,
      "Ġentr": 6058,
      "Ġbattle": 6059,
      "ĠAT": 6060,
      "Ġrelatively": 6061,
      "ait": 6062,
      "Ġequal": 6063,
      "Ġfort": 6064,
      "Ġperman": 6065,
      "Ġformed": 6066,
      "Any": 6067,
      "eries": 6068,
      "ĠLos": 6069,
      "Ġmilk": 6070,
      "SC": 6071,
      "Ġtaught": 6072,
      "ĠBrown": 6073,
      "ĠBas": 6074,
      "igned": 6075,
      "ĠOnly": 6076,
      "Ġcandidates": 6077,
      "Ĥ¬": 6078,
      "asp": 6079,
      "ĠTre": 6080,
      "othe": 6081,
      "ĠRE": 6082,
      "Ġpharm": 6083,
      "Ġkick": 6084,
      "Ġbroken": 6085,
      "Ġinteg": 6086,
      "Let": 6087,
      "ht": 6088,
      "ounder": 6089,
      "ĠRussia": 6090,
      "Ġmut": 6091,
      "Ġregional": 6092,
      "Ġinvestors": 6093,
      "Ġprompt": 6094,
      "Ġhosting": 6095,
      "osoph": 6096,
      "Ġcampus": 6097,
      "Ġemotional": 6098,
      "ĠCongress": 6099,
      "icial": 6100,
      "Ġaspect": 6101,
      "sm": 6102,
      "ĠCEO": 6103,
      "rid": 6104,
      "Ġtub": 6105,
      "uts": 6106,
      "osite": 6107,
      "ĠScott": 6108,
      "ossible": 6109,
      "Ġfourth": 6110,
      "Sp": 6111,
      "ndom": 6112,
      "ĠWal": 6113,
      "Ġinspiration": 6114,
      "abled": 6115,
      "ĠFund": 6116,
      "Ġflag": 6117,
      "ixture": 6118,
      "Ġusual": 6119,
      "erts": 6120,
      "ĠList": 6121,
      "Ġspr": 6122,
      "Ġstudio": 6123,
      "Ġelig": 6124,
      "ĠGlobal": 6125,
      "Ste": 6126,
      "Ġcharged": 6127,
      "Ġexclusive": 6128,
      "igan": 6129,
      "ears": 6130,
      "Ġimprovement": 6131,
      "Ġsituations": 6132,
      "riage": 6133,
      "Ġupcoming": 6134,
      "acks": 6135,
      "Ġtechnique": 6136,
      "Ġrail": 6137,
      "Ġexpectations": 6138,
      "ĠSmith": 6139,
      "Ġforces": 6140,
      "ĠTour": 6141,
      "ĠSP": 6142,
      "intage": 6143,
      "Ġfacilit": 6144,
      "pret": 6145,
      "Â°": 6146,
      "Ġyellow": 6147,
      "Ġupper": 6148,
      "Ġscheduled": 6149,
      "ĠTown": 6150,
      "85": 6151,
      "Ġmal": 6152,
      "Ġease": 6153,
      "Ġserves": 6154,
      "Ġoperate": 6155,
      "Ġplate": 6156,
      "Ġimpressive": 6157,
      "mond": 6158,
      "Ġcake": 6159,
      "ĠInvest": 6160,
      "ĠGal": 6161,
      "ords": 6162,
      "ĠRussian": 6163,
      "SP": 6164,
      "Ġcooper": 6165,
      "ĠAdv": 6166,
      "Ġchat": 6167,
      "Ġalcohol": 6168,
      "Ġloves": 6169,
      "Ġinformed": 6170,
      "Ġphotography": 6171,
      "ĠFranc": 6172,
      "lla": 6173,
      "Ġfoundation": 6174,
      "ĠManager": 6175,
      "Ġconducted": 6176,
      "Ġluxury": 6177,
      "look": 6178,
      "Ġsevere": 6179,
      "endar": 6180,
      "Ġhardware": 6181,
      "Ġticket": 6182,
      "Ġstopped": 6183,
      "Ġchain": 6184,
      "ĠAccording": 6185,
      "stone": 6186,
      "Ġbask": 6187,
      "ĠDef": 6188,
      "Ġ32": 6189,
      "Ġlit": 6190,
      "Ġskill": 6191,
      "Ġcertified": 6192,
      "Ġdiverse": 6193,
      "ban": 6194,
      "working": 6195,
      "ĠParis": 6196,
      "Ġdiamond": 6197,
      "Ġnine": 6198,
      "Ġkit": 6199,
      "ĠTable": 6200,
      "ĠGall": 6201,
      "Ġstyles": 6202,
      "**": 6203,
      "Ġvir": 6204,
      "Ġsauce": 6205,
      "Ġbelief": 6206,
      "Ġtypical": 6207,
      "Ġmonitoring": 6208,
      "Ġparam": 6209,
      "ĠCanadian": 6210,
      "Ġchallenging": 6211,
      "ĠWhere": 6212,
      "asts": 6213,
      "Ġdistinct": 6214,
      "Ġroutine": 6215,
      "vi": 6216,
      "Ġthorough": 6217,
      "ĠPeter": 6218,
      "Ġwealth": 6219,
      "Ġsilver": 6220,
      "rip": 6221,
      "Ġinvent": 6222,
      "isher": 6223,
      "ĠWomen": 6224,
      "aked": 6225,
      "Another": 6226,
      "Ġcloser": 6227,
      "uration": 6228,
      "ĠAtt": 6229,
      "Ġeveryday": 6230,
      "arsh": 6231,
      "Ġtiss": 6232,
      "Ġidentity": 6233,
      "Ġshoes": 6234,
      "Ġcop": 6235,
      "ĠCP": 6236,
      "Ġang": 6237,
      "Ġdescription": 6238,
      "Ġcircumstances": 6239,
      "Ġsan": 6240,
      "related": 6241,
      "made": 6242,
      "Ġrandom": 6243,
      "Ġalle": 6244,
      "Ġrank": 6245,
      "Ġagents": 6246,
      "ersonal": 6247,
      "comes": 6248,
      "Ġtheory": 6249,
      "Ġfro": 6250,
      "aid": 6251,
      "Ġvital": 6252,
      "ĠEqu": 6253,
      "Ġcheese": 6254,
      "hors": 6255,
      "Ġoutstanding": 6256,
      "Ġworldwide": 6257,
      "ora": 6258,
      "ĠEconom": 6259,
      "gging": 6260,
      "Ġbowl": 6261,
      "arrow": 6262,
      "ĠHaw": 6263,
      "ĠDi": 6264,
      "ĠInf": 6265,
      "Ġinvolve": 6266,
      "otton": 6267,
      "Ġrid": 6268,
      "Ġagreed": 6269,
      "Ġpassword": 6270,
      "Ġvirtual": 6271,
      "ĠThrough": 6272,
      "Ġsyn": 6273,
      "Ġchoosing": 6274,
      "Ġtrouble": 6275,
      "Ġsavings": 6276,
      "Ġdrugs": 6277,
      "ĠCode": 6278,
      "ilst": 6279,
      "irmed": 6280,
      "anda": 6281,
      "ĠItalian": 6282,
      "Ġhappening": 6283,
      "According": 6284,
      "inn": 6285,
      "Ġmassive": 6286,
      "Ġfal": 6287,
      "Ġclassroom": 6288,
      "oop": 6289,
      "ĠDen": 6290,
      "Ġsupposed": 6291,
      "Ġfacing": 6292,
      "Ġlandscape": 6293,
      "Ġheight": 6294,
      "Ġfailed": 6295,
      "ĠBud": 6296,
      "Ġqualified": 6297,
      "istan": 6298,
      "Ġmel": 6299,
      "pons": 6300,
      "aren": 6301,
      "orders": 6302,
      "Ġpartnership": 6303,
      "ras": 6304,
      "Ġorganis": 6305,
      "Ġmembership": 6306,
      "ĠRobert": 6307,
      "Ġages": 6308,
      "Ġends": 6309,
      "ĠNov": 6310,
      "ĠAmericans": 6311,
      "Ġemployment": 6312,
      "Most": 6313,
      "Ġrow": 6314,
      "Ġexecutive": 6315,
      "Ġaffili": 6316,
      "Ġstre": 6317,
      "Ġextended": 6318,
      "Bl": 6319,
      "Ġappeared": 6320,
      "Ġvend": 6321,
      "Ġcaught": 6322,
      "Ġpun": 6323,
      "ĠSet": 6324,
      "Ġmeetings": 6325,
      "west": 6326,
      "aning": 6327,
      "Ġcarbon": 6328,
      "Ġprogramme": 6329,
      "Ġretire": 6330,
      "race": 6331,
      "Ġvs": 6332,
      "Ġresearchers": 6333,
      "ĠHim": 6334,
      "Ġarts": 6335,
      "nergy": 6336,
      "Ġrisks": 6337,
      "Ġbonus": 6338,
      "Ġclosely": 6339,
      "Ġmoments": 6340,
      "Ġdepth": 6341,
      "Ġmir": 6342,
      "Ġcoordin": 6343,
      "Ġnearby": 6344,
      "Ġrear": 6345,
      "Ġregulations": 6346,
      "fortunately": 6347,
      "Ġpersonally": 6348,
      "ye": 6349,
      "Ġvacation": 6350,
      "Ġflexible": 6351,
      "Ġfif": 6352,
      "Ġprotected": 6353,
      "Ġobtained": 6354,
      "Ġmanufacturer": 6355,
      "OV": 6356,
      "Ġdefault": 6357,
      "Well": 6358,
      "Ġdeploy": 6359,
      "Ġquote": 6360,
      "Ġcommission": 6361,
      "Ġorganized": 6362,
      "ĠDemocr": 6363,
      "Ġfeatured": 6364,
      "Ġspeaking": 6365,
      "ĠAddition": 6366,
      "First": 6367,
      "ĠHand": 6368,
      "elcome": 6369,
      "ĠMedia": 6370,
      "Ġpublish": 6371,
      "Ġstands": 6372,
      "Ġmovies": 6373,
      "Ġvillage": 6374,
      "Last": 6375,
      "Ġremoval": 6376,
      "Ġcapable": 6377,
      "Ġast": 6378,
      "Ġtransition": 6379,
      "umes": 6380,
      "uclear": 6381,
      "UN": 6382,
      "va": 6383,
      "osh": 6384,
      "ĠOper": 6385,
      "Ġengagement": 6386,
      "ena": 6387,
      "Ġmonitor": 6388,
      "Ġbirthday": 6389,
      "Ġstunning": 6390,
      "Ġreligious": 6391,
      "Ġatmosphere": 6392,
      "etary": 6393,
      "igration": 6394,
      "Ġconv": 6395,
      "Ġinches": 6396,
      "Ġinterface": 6397,
      "Ġriver": 6398,
      "Ġtemplate": 6399,
      "?\"": 6400,
      "ĠSoft": 6401,
      "ĠHotel": 6402,
      "Ġrecorded": 6403,
      "ework": 6404,
      "Ġdefense": 6405,
      "Ġprop": 6406,
      "alled": 6407,
      "ĠVictor": 6408,
      "Ġeditor": 6409,
      "Ġrecognized": 6410,
      "Ġerr": 6411,
      "Ġdiss": 6412,
      "Ġentirely": 6413,
      "Ġfitness": 6414,
      "Pre": 6415,
      "anges": 6416,
      "ints": 6417,
      "ĠInstead": 6418,
      "iminal": 6419,
      "Ġmainly": 6420,
      "Ġimplementation": 6421,
      "Ġsister": 6422,
      "bur": 6423,
      "rency": 6424,
      "SE": 6425,
      "Ġmoist": 6426,
      "Ġimagine": 6427,
      "ĠAud": 6428,
      "Ġther": 6429,
      "ĠAccess": 6430,
      "Ġstars": 6431,
      "05": 6432,
      "Ġinstruct": 6433,
      "Ġcreates": 6434,
      "Ġmissed": 6435,
      "ĠAcademy": 6436,
      "Ġexceed": 6437,
      "Ġcompare": 6438,
      "ĠReal": 6439,
      "ĠTrust": 6440,
      "orgeous": 6441,
      "Ġvast": 6442,
      "Ġnetworks": 6443,
      "Ġpleased": 6444,
      "Ġcollaboration": 6445,
      "Ġresistance": 6446,
      "onom": 6447,
      "orable": 6448,
      "cking": 6449,
      "ĠLab": 6450,
      "Ġspiritual": 6451,
      "vate": 6452,
      "ĠThose": 6453,
      "Ġturns": 6454,
      "Ġsurprise": 6455,
      "Ġincreases": 6456,
      "Ġ>": 6457,
      "Ġwitness": 6458,
      "liers": 6459,
      "ĠDou": 6460,
      "Ġentreprene": 6461,
      "rating": 6462,
      "Ġshel": 6463,
      "Ġeleg": 6464,
      "ĠAnother": 6465,
      "ĠOffic": 6466,
      "secut": 6467,
      "Ġcolumn": 6468,
      "Ġ2004": 6469,
      "oes": 6470,
      "ĠMont": 6471,
      "Ġcontrast": 6472,
      "ospit": 6473,
      "ĠMP": 6474,
      "Ġelection": 6475,
      "ĠExt": 6476,
      "Ġedition": 6477,
      "Ġfreedom": 6478,
      "uine": 6479,
      "Ġtab": 6480,
      "ĠLu": 6481,
      "Ġwinner": 6482,
      "ĠStart": 6483,
      "Ġtrig": 6484,
      "Ġsoil": 6485,
      "Ġsky": 6486,
      "Ġexpenses": 6487,
      "Ġclothes": 6488,
      "Ġdestination": 6489,
      "lete": 6490,
      "TC": 6491,
      "ĠIre": 6492,
      "ĠTim": 6493,
      "ĠWil": 6494,
      "iked": 6495,
      "78": 6496,
      "Ġdental": 6497,
      "Ġenthus": 6498,
      "Ġreturns": 6499,
      "Ġapparent": 6500,
      "you": 6501,
      "Ġconcrete": 6502,
      "Ġentertainment": 6503,
      "cknow": 6504,
      "Ġauthority": 6505,
      "Ġmic": 6506,
      "Ġguidance": 6507,
      "ĠHead": 6508,
      "Ġoven": 6509,
      "Or": 6510,
      "Ġworse": 6511,
      "Ġadventure": 6512,
      "Ġprecise": 6513,
      "rations": 6514,
      "arian": 6515,
      "idays": 6516,
      "Ġanx": 6517,
      "ache": 6518,
      "izer": 6519,
      "Ġroot": 6520,
      "Ġnormally": 6521,
      "ĠSeries": 6522,
      "Ġpil": 6523,
      "Ġscr": 6524,
      "Ġarg": 6525,
      "Ġextension": 6526,
      "Ġdraft": 6527,
      "Ġhyp": 6528,
      "Ġjudge": 6529,
      "Ġvul": 6530,
      "Ġtested": 6531,
      "rieved": 6532,
      "Ġcrucial": 6533,
      "ppers": 6534,
      "Ġentered": 6535,
      "ĠAdminist": 6536,
      "ĠControl": 6537,
      "Ġabsor": 6538,
      "merce": 6539,
      "Ġgolf": 6540,
      "Ġgifts": 6541,
      "ĠIll": 6542,
      "Ġdiscip": 6543,
      "ĠLeague": 6544,
      "Ġcounsel": 6545,
      "MC": 6546,
      "ĠArab": 6547,
      "ĠLog": 6548,
      "Ġshock": 6549,
      "Ġadvoc": 6550,
      "ĠSpanish": 6551,
      "Ġpm": 6552,
      "ĠHuman": 6553,
      "Ġobjects": 6554,
      "car": 6555,
      "Ġmining": 6556,
      "Ġnoticed": 6557,
      "ĠMA": 6558,
      "Ġfeaturing": 6559,
      "Ke": 6560,
      "Ġyesterday": 6561,
      "Ġnone": 6562,
      "Ġwearing": 6563,
      "Ġexposure": 6564,
      "Ã¼": 6565,
      "ĠCH": 6566,
      "Ġgear": 6567,
      "away": 6568,
      "ĠMinister": 6569,
      "Ġsustainable": 6570,
      "Ġsou": 6571,
      "Ġscholars": 6572,
      "da": 6573,
      "Ġsad": 6574,
      "Ġfiled": 6575,
      "ĠBible": 6576,
      "Ġcelebrate": 6577,
      "irty": 6578,
      "ĠPack": 6579,
      "Ġcompens": 6580,
      "ĠMaybe": 6581,
      "Ġlapt": 6582,
      "Ġrom": 6583,
      "Ġnative": 6584,
      "Ġdifferences": 6585,
      "Ġpasseng": 6586,
      "Ġgrew": 6587,
      "ĠGarden": 6588,
      "Ġrevealed": 6589,
      "Ġimproving": 6590,
      "Ġpicked": 6591,
      "aturally": 6592,
      "ansion": 6593,
      "Ġpregn": 6594,
      "Ġweap": 6595,
      "ĠFurther": 6596,
      "Ġ400": 6597,
      "ĠBed": 6598,
      "Ġancient": 6599,
      "Add": 6600,
      "bles": 6601,
      "Ġunlike": 6602,
      "Ġperforming": 6603,
      "Ġtrends": 6604,
      "Ġmere": 6605,
      "Ġattached": 6606,
      "azz": 6607,
      "Ġodd": 6608,
      "Ġdates": 6609,
      "Ġ48": 6610,
      "Ġmedicine": 6611,
      "Ġincorpor": 6612,
      "Ġmuseum": 6613,
      "Ġinvestigation": 6614,
      "Ġfolks": 6615,
      "CE": 6616,
      "Ġbanks": 6617,
      "Ġresulting": 6618,
      "Am": 6619,
      "Ġinch": 6620,
      "Ġunable": 6621,
      "Ġindeed": 6622,
      "Ġkilled": 6623,
      "Ġattra": 6624,
      "ĠProv": 6625,
      "ĠFrank": 6626,
      "ĠCab": 6627,
      "Ġproof": 6628,
      "Ġcontribute": 6629,
      "Ġrecognize": 6630,
      "Ġtiny": 6631,
      "ĠUl": 6632,
      "Ġicon": 6633,
      "ĠFestival": 6634,
      "Ġgallery": 6635,
      "ĠNE": 6636,
      "Ġgrab": 6637,
      "Ġmanaging": 6638,
      "Ġdangerous": 6639,
      "oston": 6640,
      "Ġinstrument": 6641,
      "Ġoffices": 6642,
      "Ġgenerate": 6643,
      "dden": 6644,
      "%.": 6645,
      "bi": 6646,
      "ailable": 6647,
      "berry": 6648,
      "date": 6649,
      "Ġmusical": 6650,
      "Ġgrass": 6651,
      "under": 6652,
      "Ġrein": 6653,
      "Ġtells": 6654,
      "Ġstructures": 6655,
      "Ġfavourite": 6656,
      "ĠCath": 6657,
      "ĠCup": 6658,
      "eder": 6659,
      "Ġtom": 6660,
      "Ġairport": 6661,
      "Ġstrategic": 6662,
      "Ġcollected": 6663,
      "Ġbes": 6664,
      "fection": 6665,
      "Ġboys": 6666,
      "âĢ¦.": 6667,
      "Ġwhenever": 6668,
      "ĠJud": 6669,
      "Ġdevelopers": 6670,
      "Ġdomestic": 6671,
      "Ġimpossible": 6672,
      "Ġmixed": 6673,
      "42": 6674,
      "GB": 6675,
      "Ġacknow": 6676,
      "Ġcommunications": 6677,
      "ushing": 6678,
      "Ġprinted": 6679,
      "????": 6680,
      "ĠAngeles": 6681,
      "Ġclar": 6682,
      "Ġindustries": 6683,
      "Ġdiscussed": 6684,
      "Ġgraduate": 6685,
      "ii": 6686,
      "rans": 6687,
      "yard": 6688,
      "ushed": 6689,
      "Ġflood": 6690,
      "Ġearned": 6691,
      "Ab": 6692,
      "Ġlistening": 6693,
      "ĠSecond": 6694,
      "case": 6695,
      "rates": 6696,
      "ĠAR": 6697,
      "Ġundert": 6698,
      "Ġturning": 6699,
      "ĠBal": 6700,
      "ĠItaly": 6701,
      "ĠChair": 6702,
      "Ġpricing": 6703,
      "ĠSpring": 6704,
      "Ġtro": 6705,
      "Ġtall": 6706,
      "itage": 6707,
      "ĠFair": 6708,
      "ĠView": 6709,
      "REE": 6710,
      "Ġpreparation": 6711,
      "Ġfairly": 6712,
      "Ġreputation": 6713,
      "Ġarms": 6714,
      "owntown": 6715,
      "Te": 6716,
      "ta": 6717,
      "illy": 6718,
      "ĠHope": 6719,
      "Ġarrest": 6720,
      "52": 6721,
      "ĠWay": 6722,
      "Ġindex": 6723,
      "kers": 6724,
      "edia": 6725,
      "pel": 6726,
      "Ġconsistent": 6727,
      "ran": 6728,
      "Ġsudden": 6729,
      "Ġdesigner": 6730,
      "Ġphotograp": 6731,
      "Ġcomponent": 6732,
      "Ġcandidate": 6733,
      "Ġobvious": 6734,
      "!\"": 6735,
      "Ġord": 6736,
      "Ġfirms": 6737,
      "ĠCy": 6738,
      "astern": 6739,
      "ĠMiddle": 6740,
      "Ġconfident": 6741,
      "Ġdelay": 6742,
      "PC": 6743,
      "icit": 6744,
      "Ġexplained": 6745,
      "Ġdomin": 6746,
      "Ġdisappoint": 6747,
      "arks": 6748,
      "Ġtech": 6749,
      "Ġgarage": 6750,
      "Ġattorney": 6751,
      "Ġdiscl": 6752,
      "alle": 6753,
      "?âĢĿ": 6754,
      "Today": 6755,
      "Ġcrisis": 6756,
      "Ġvisited": 6757,
      "Ġmeals": 6758,
      "Ġspons": 6759,
      "ĠEngineering": 6760,
      "46": 6761,
      "han": 6762,
      "terior": 6763,
      "ĠUsing": 6764,
      "Im": 6765,
      "Ġbear": 6766,
      "Ġsamples": 6767,
      "Ġenables": 6768,
      "profit": 6769,
      "ĠWebs": 6770,
      "ĠRev": 6771,
      "ĠBefore": 6772,
      "Ġattended": 6773,
      "ĠLand": 6774,
      "Ġtalent": 6775,
      "Ġlinked": 6776,
      "Ġguidelines": 6777,
      "79": 6778,
      "Ġhero": 6779,
      "Ġjack": 6780,
      "Ġpapers": 6781,
      "ĠFederal": 6782,
      "Ġsufficient": 6783,
      "ingu": 6784,
      "asant": 6785,
      "celer": 6786,
      "Ġbooking": 6787,
      "CT": 6788,
      "ĠPac": 6789,
      "Ġletters": 6790,
      "ĠScot": 6791,
      "resents": 6792,
      "ideo": 6793,
      "folio": 6794,
      "Ġproven": 6795,
      "Ġchief": 6796,
      "ĠJose": 6797,
      "Ġapproval": 6798,
      "Ġconcl": 6799,
      "Ġlessons": 6800,
      "Tra": 6801,
      "Ġpod": 6802,
      "Ġsight": 6803,
      "ĠLouis": 6804,
      "Press": 6805,
      "writ": 6806,
      "Ġurban": 6807,
      "erning": 6808,
      "ading": 6809,
      "Ġshops": 6810,
      "ĠEnergy": 6811,
      "Ġreplaced": 6812,
      "df": 6813,
      "Ġlogo": 6814,
      "holders": 6815,
      "Click": 6816,
      "Ġoriginally": 6817,
      "Ġliquid": 6818,
      "Ġpill": 6819,
      "Ġgenerated": 6820,
      "can": 6821,
      "igure": 6822,
      "ĠPDF": 6823,
      "Ġordered": 6824,
      "ĠSecret": 6825,
      "Ġtelevision": 6826,
      "ĠSU": 6827,
      "Ġsubsequ": 6828,
      "Ġpossibility": 6829,
      "Although": 6830,
      "Bu": 6831,
      "Ġsoul": 6832,
      "enced": 6833,
      "Ġspeech": 6834,
      "ĠApplic": 6835,
      "owing": 6836,
      "ĠPin": 6837,
      "ĠAuto": 6838,
      "Ġdynamic": 6839,
      "nic": 6840,
      "Ġexpression": 6841,
      "Ġfaculty": 6842,
      "Also": 6843,
      "].": 6844,
      "vy": 6845,
      "Ñĥ": 6846,
      "ĠColl": 6847,
      "Ġmanufacturers": 6848,
      "41": 6849,
      "II": 6850,
      "Ġtelling": 6851,
      "Ġauthors": 6852,
      "Ġequipped": 6853,
      "ĠIreland": 6854,
      "Ġreward": 6855,
      "Ġsin": 6856,
      "Ġwest": 6857,
      "Ġnegoti": 6858,
      "Ġvulner": 6859,
      "ĠLibrary": 6860,
      "Ġfilms": 6861,
      "yan": 6862,
      "oral": 6863,
      "Ġformal": 6864,
      "ĠMike": 6865,
      "asters": 6866,
      "Ġattractive": 6867,
      "Ġforced": 6868,
      "Ġclothing": 6869,
      "Ġreducing": 6870,
      "ecutive": 6871,
      "Ġfishing": 6872,
      "ĠEr": 6873,
      "luded": 6874,
      "UL": 6875,
      "Ġstim": 6876,
      "ĠWild": 6877,
      "Ġconfirmed": 6878,
      "ĠSystems": 6879,
      "Ġsuc": 6880,
      "Ġfacts": 6881,
      "Ġawarded": 6882,
      "43": 6883,
      "Ġhandling": 6884,
      "Ġtaxes": 6885,
      "Ġrecipes": 6886,
      "Ġwet": 6887,
      "ĠMen": 6888,
      "elf": 6889,
      "ĠVill": 6890,
      "Ġarrive": 6891,
      "Ġproducing": 6892,
      "Ġimmediate": 6893,
      "ĠMexico": 6894,
      "Over": 6895,
      "ingly": 6896,
      "Ġinterpret": 6897,
      "ĠPrem": 6898,
      "site": 6899,
      "Ġongoing": 6900,
      "duate": 6901,
      "ographic": 6902,
      "Ġadds": 6903,
      "yers": 6904,
      "Ġwidely": 6905,
      "Ġmerch": 6906,
      "Ġpipe": 6907,
      "Ġextract": 6908,
      "Ġbags": 6909,
      "Ġachieved": 6910,
      "ĠDigital": 6911,
      "58": 6912,
      "Ġveter": 6913,
      "ca": 6914,
      "wing": 6915,
      "ĠFarm": 6916,
      "achel": 6917,
      "Ġconstant": 6918,
      "nament": 6919,
      "AB": 6920,
      "Ġcute": 6921,
      "Ġinvited": 6922,
      "Hi": 6923,
      "More": 6924,
      "uction": 6925,
      "ĠCond": 6926,
      "Ġversions": 6927,
      "Ġwithd": 6928,
      "Ġdesired": 6929,
      "ĠRoom": 6930,
      "Ġrelief": 6931,
      "ĠCoast": 6932,
      "ĠTimes": 6933,
      "ĠRest": 6934,
      "Ġcompat": 6935,
      "Ġsuggested": 6936,
      "Have": 6937,
      "Ġchannels": 6938,
      "ĠSite": 6939,
      "Ġprove": 6940,
      "Ġsuperior": 6941,
      "Ġplatforms": 6942,
      "ainless": 6943,
      "Ġmotion": 6944,
      "Ġfounded": 6945,
      "Ġdealing": 6946,
      "anger": 6947,
      "ĠDev": 6948,
      "Ġrealized": 6949,
      "Ġtreatments": 6950,
      "Qu": 6951,
      "Ġbodies": 6952,
      "Ġ75": 6953,
      "Ġsusp": 6954,
      "Ġtransportation": 6955,
      "Ġathlet": 6956,
      "Ġrepresents": 6957,
      "Ġprimarily": 6958,
      "ĠMax": 6959,
      "rich": 6960,
      "Ġforth": 6961,
      "Ġapplicable": 6962,
      "ĠInte": 6963,
      "ĠFlo": 6964,
      "Ġsolve": 6965,
      "Ġinjuries": 6966,
      "tle": 6967,
      "ĠMic": 6968,
      "ĠPoint": 6969,
      "ĠLast": 6970,
      "Ġshift": 6971,
      "ogue": 6972,
      "Ġreporting": 6973,
      "Ġenterprise": 6974,
      "hire": 6975,
      "entle": 6976,
      "ĠCost": 6977,
      "Ġofficer": 6978,
      "Ġgenuine": 6979,
      "Ġarchitecture": 6980,
      "quality": 6981,
      "ĠAuthor": 6982,
      "HS": 6983,
      "Ġdeck": 6984,
      "agon": 6985,
      "ĠSEO": 6986,
      "Ġbasket": 6987,
      "Ind": 6988,
      "ĠDC": 6989,
      "Ġvegetables": 6990,
      "Ġestimated": 6991,
      "ĠRoyal": 6992,
      "utter": 6993,
      "odel": 6994,
      "Ġocean": 6995,
      "ĠCross": 6996,
      "gend": 6997,
      "ĠThomas": 6998,
      "Ġ36": 6999,
      "Ġempt": 7000,
      "Ġok": 7001,
      "Ġworkshop": 7002,
      "Ġdescribe": 7003,
      "Ġreferred": 7004,
      "Ġgorgeous": 7005,
      "oty": 7006,
      "Ġje": 7007,
      "Ġjew": 7008,
      "ĠJul": 7009,
      "Ġsmile": 7010,
      "Ġbridge": 7011,
      "Ġphilosoph": 7012,
      "cers": 7013,
      "Ġscan": 7014,
      "Ġavailability": 7015,
      "Ġdepends": 7016,
      "bra": 7017,
      "lymp": 7018,
      "Ġpursu": 7019,
      "Ġfellow": 7020,
      "inch": 7021,
      "abet": 7022,
      "ĠVirginia": 7023,
      "Ġfalse": 7024,
      "iser": 7025,
      "Ġlosing": 7026,
      "Ġchose": 7027,
      "Ġsomewhat": 7028,
      "build": 7029,
      "Dr": 7030,
      "Ġheav": 7031,
      "Ġguitar": 7032,
      "Ġmillions": 7033,
      "Ġtank": 7034,
      "Ġhur": 7035,
      "cture": 7036,
      "ĠCa": 7037,
      "Ġrating": 7038,
      "Ġsucceed": 7039,
      "hem": 7040,
      "ĠStore": 7041,
      "Ġfigures": 7042,
      "Ġmatches": 7043,
      "Ġdefend": 7044,
      "Ġstretch": 7045,
      "ican": 7046,
      "Ġcontest": 7047,
      "Ġupgrade": 7048,
      "front": 7049,
      "reate": 7050,
      "ĠBoston": 7051,
      "Ġsaved": 7052,
      "ĠAccount": 7053,
      "Ġcomparison": 7054,
      "eding": 7055,
      "Ġfinance": 7056,
      "Ġyounger": 7057,
      "GE": 7058,
      "jection": 7059,
      "Ġcontrolled": 7060,
      "04": 7061,
      "ura": 7062,
      "Ġstake": 7063,
      "ifies": 7064,
      "Ġchapter": 7065,
      "Ġcertification": 7066,
      "Ġrecording": 7067,
      "Ġbottle": 7068,
      "Ġdisplayed": 7069,
      "isk": 7070,
      "Ġtransp": 7071,
      "Ġspecialist": 7072,
      "Ġbreast": 7073,
      "gas": 7074,
      "Ġanticip": 7075,
      "she": 7076,
      "Ġawards": 7077,
      "inally": 7078,
      "Ġcapabilities": 7079,
      "Ġcontrols": 7080,
      "friendly": 7081,
      "Ġinner": 7082,
      "Ġevol": 7083,
      "Ġscheme": 7084,
      "Ġmur": 7085,
      "Ġthin": 7086,
      "ĠPhys": 7087,
      "____": 7088,
      "inity": 7089,
      "Ġliked": 7090,
      "quir": 7091,
      "ĠIsl": 7092,
      "inem": 7093,
      "ĠFull": 7094,
      "Ġtrave": 7095,
      "Ġol": 7096,
      "Ġrig": 7097,
      "Ġrequirement": 7098,
      "Ġevaluation": 7099,
      "ĠIran": 7100,
      "Whe": 7101,
      "gers": 7102,
      "zing": 7103,
      "Ġflower": 7104,
      "Ġprinting": 7105,
      "Ġduty": 7106,
      "MP": 7107,
      "Ġbeer": 7108,
      "Ġtap": 7109,
      "ĠId": 7110,
      "ĠSaf": 7111,
      "igr": 7112,
      "âĢĻ,": 7113,
      "ĠOpt": 7114,
      "stal": 7115,
      "rently": 7116,
      "Ġinvolves": 7117,
      "Ġpercentage": 7118,
      "ĠSC": 7119,
      "Ġaccessories": 7120,
      "class": 7121,
      "Ġcapture": 7122,
      "Pe": 7123,
      "Ġlamp": 7124,
      "Ġaside": 7125,
      "oster": 7126,
      "worth": 7127,
      "ether": 7128,
      "urse": 7129,
      "Ġamounts": 7130,
      "ĠChildren": 7131,
      "59": 7132,
      "During": 7133,
      "Ġ..": 7134,
      "ĠEnd": 7135,
      "Ġexperiment": 7136,
      "mary": 7137,
      "Ġterror": 7138,
      "real": 7139,
      "Ġrenov": 7140,
      "ĠAD": 7141,
      "level": 7142,
      "Tube": 7143,
      "host": 7144,
      "ĠPass": 7145,
      "Ġcriminal": 7146,
      "Ġensuring": 7147,
      "ulpt": 7148,
      "Ġrecommendations": 7149,
      "ĠSometimes": 7150,
      "Ġeligible": 7151,
      "Ġram": 7152,
      "Ġstored": 7153,
      "ĠForm": 7154,
      "Ġwireless": 7155,
      "then": 7156,
      "inos": 7157,
      "Ġresume": 7158,
      "Ġcommunicate": 7159,
      "ĠZeal": 7160,
      "Ġreduction": 7161,
      "Ġdust": 7162,
      "ĠCO": 7163,
      "ĠCe": 7164,
      "Ġtrick": 7165,
      "Ġzone": 7166,
      "Ġauthorities": 7167,
      "ja": 7168,
      "Ġfasc": 7169,
      "Ġmixture": 7170,
      "iments": 7171,
      "riz": 7172,
      "ellect": 7173,
      "Ġunex": 7174,
      "ĠKey": 7175,
      "Ġseats": 7176,
      "Ġmattress": 7177,
      "ĠRetrieved": 7178,
      "oh": 7179,
      "Ġcos": 7180,
      "stra": 7181,
      "ĠThus": 7182,
      "Ġcookies": 7183,
      "Ġfrust": 7184,
      "Ġhistoric": 7185,
      "Ġhall": 7186,
      "eline": 7187,
      "ĠChief": 7188,
      "ĠJewish": 7189,
      "ĠQueen": 7190,
      "Ġseriously": 7191,
      "Ġexception": 7192,
      "Ġlicensed": 7193,
      "Ġcommittee": 7194,
      "Ġflavor": 7195,
      "lder": 7196,
      "Ġrose": 7197,
      "Ġextent": 7198,
      "ĠSupport": 7199,
      "neys": 7200,
      "Ġbuyers": 7201,
      "Ġaccomplish": 7202,
      "Ġexport": 7203,
      "ĠTry": 7204,
      "ĠGar": 7205,
      "Ġentit": 7206,
      "ĠPlace": 7207,
      "Ġcrime": 7208,
      "Ġvent": 7209,
      "ĠJim": 7210,
      "Ġdecade": 7211,
      "Ġguard": 7212,
      "Ġconcerning": 7213,
      "Ġstatements": 7214,
      "Ġbreath": 7215,
      "ĠLED": 7216,
      "Ġsmell": 7217,
      "Ġdrag": 7218,
      "ĠDoes": 7219,
      "Ġnutrition": 7220,
      "Ġconflict": 7221,
      "VD": 7222,
      "ba": 7223,
      "law": 7224,
      "zil": 7225,
      "atell": 7226,
      "Ġpowder": 7227,
      "Ġ!": 7228,
      "Ġsick": 7229,
      "athy": 7230,
      "iences": 7231,
      "Man": 7232,
      "Ġsurprised": 7233,
      "RS": 7234,
      "Ġid": 7235,
      "ĠBow": 7236,
      "Ġenforce": 7237,
      "ĠNext": 7238,
      "ĠZealand": 7239,
      "Ġhidden": 7240,
      "Ġboxes": 7241,
      "Ġmand": 7242,
      "ĠLin": 7243,
      "Ġteen": 7244,
      "Ġsubmitted": 7245,
      "ĠAssist": 7246,
      "Ġenem": 7247,
      "Ġregions": 7248,
      "Ġinsight": 7249,
      "ĠSea": 7250,
      "Ġofficers": 7251,
      "Ġultimately": 7252,
      "ĠiP": 7253,
      "EE": 7254,
      "ogen": 7255,
      "Ġoverw": 7256,
      "Ġfollows": 7257,
      "Ġhumans": 7258,
      "Ġ2003": 7259,
      "Ġlegs": 7260,
      "ĠCharl": 7261,
      "pack": 7262,
      "ĠHP": 7263,
      "EST": 7264,
      "Ġarray": 7265,
      "Ġslowly": 7266,
      "ĠHistory": 7267,
      "ĠBob": 7268,
      "Ġfunctional": 7269,
      "Ġlayout": 7270,
      "FL": 7271,
      "kins": 7272,
      "ĠSci": 7273,
      "Ġmoves": 7274,
      "Ġadm": 7275,
      "Ġdrawing": 7276,
      "Ġbelieved": 7277,
      "Ġfestival": 7278,
      "Ġmold": 7279,
      "Ġbell": 7280,
      "ĠPenn": 7281,
      "ĠOlymp": 7282,
      "Ġkne": 7283,
      "Ġspeaker": 7284,
      "ĠObama": 7285,
      "Ġyard": 7286,
      "ĠSign": 7287,
      "Ġhabit": 7288,
      "apore": 7289,
      "Ġsatisfaction": 7290,
      "lements": 7291,
      "ione": 7292,
      "Ġlad": 7293,
      "ĠTerm": 7294,
      "Ġsynt": 7295,
      "ulum": 7296,
      "anted": 7297,
      "Ġinspe": 7298,
      "ĠLee": 7299,
      "Ġmanagers": 7300,
      "Ġpriority": 7301,
      "ml": 7302,
      "Ġfru": 7303,
      "Ġnarrow": 7304,
      "Ġrelative": 7305,
      "Ġinteract": 7306,
      "Ġplanet": 7307,
      "Ġmuscle": 7308,
      "Ġblend": 7309,
      "Ġagricult": 7310,
      "Ġhonor": 7311,
      "ĠTru": 7312,
      "ĠDisc": 7313,
      "Ġvibr": 7314,
      "Ġraw": 7315,
      "mo": 7316,
      "Ġdispl": 7317,
      "etry": 7318,
      "ĠCreat": 7319,
      "Ġ150": 7320,
      "Ġwriters": 7321,
      "Ġcrusher": 7322,
      "âĢĭ": 7323,
      "ĠGame": 7324,
      "ĠDisney": 7325,
      "Ġcodes": 7326,
      "that": 7327,
      "Ġslot": 7328,
      "Ġprinciples": 7329,
      "Ġille": 7330,
      "Ġstro": 7331,
      "Ġbrill": 7332,
      "Ġbehalf": 7333,
      "Ġaddresses": 7334,
      "ĠInstagram": 7335,
      "ĠReport": 7336,
      "Ġillness": 7337,
      "ĠGeorg": 7338,
      "Ġattacks": 7339,
      "Ġultimate": 7340,
      "Ġerrors": 7341,
      "Ġtomorrow": 7342,
      "Ġsoph": 7343,
      "Ġconsists": 7344,
      "Ġelev": 7345,
      "itution": 7346,
      "oured": 7347,
      "Ġborder": 7348,
      "ĠHospital": 7349,
      "Ġads": 7350,
      "Ġinstant": 7351,
      "ĠHen": 7352,
      "tocol": 7353,
      "ĠVer": 7354,
      "Ġattach": 7355,
      "Ġpassing": 7356,
      "Ġalongside": 7357,
      "Ġtracking": 7358,
      "Ġapplying": 7359,
      "ĠBuilding": 7360,
      "ĠNote": 7361,
      "Ġinsert": 7362,
      "Ġliability": 7363,
      "EG": 7364,
      "ĠWin": 7365,
      "Ġusage": 7366,
      "ĠExecutive": 7367,
      "Even": 7368,
      "Ġwra": 7369,
      "Ġcharm": 7370,
      "ĠKen": 7371,
      "Ġpoker": 7372,
      "Ġreader": 7373,
      "Ġcritic": 7374,
      "Ġintroduction": 7375,
      "AA": 7376,
      "Ġrely": 7377,
      "ĠMur": 7378,
      "Ġsomewhere": 7379,
      "ĠGuide": 7380,
      "Ġlikes": 7381,
      "RI": 7382,
      "Ġcompliance": 7383,
      "Ġdeposit": 7384,
      "57": 7385,
      "Ġhang": 7386,
      "Ġforecast": 7387,
      "ĠStep": 7388,
      "ĠStudents": 7389,
      "esh": 7390,
      "ĠMult": 7391,
      "uls": 7392,
      "isters": 7393,
      "long": 7394,
      "ĠColumb": 7395,
      "Ġelectricity": 7396,
      "sters": 7397,
      "ĠPub": 7398,
      "ĠVan": 7399,
      "Ġflour": 7400,
      "Ġhotels": 7401,
      "Ġsplit": 7402,
      "ATION": 7403,
      "Ġmagazine": 7404,
      "âĢĺ": 7405,
      "Ġ2001": 7406,
      "Ġtip": 7407,
      "LY": 7408,
      "Of": 7409,
      "ĠMid": 7410,
      "ĠWebsite": 7411,
      "Ġhospit": 7412,
      "stream": 7413,
      "zes": 7414,
      "Ġdent": 7415,
      "lose": 7416,
      "ennis": 7417,
      "Ġsuggests": 7418,
      "Ġhealing": 7419,
      "ERS": 7420,
      "Ġcircuit": 7421,
      "Ġmile": 7422,
      "Ġroles": 7423,
      "Ġcommonly": 7424,
      "Ġmagic": 7425,
      "Ġcontinuing": 7426,
      "comm": 7427,
      "Ġpresents": 7428,
      "Ġcategories": 7429,
      "Ġpreferred": 7430,
      "missions": 7431,
      "ati": 7432,
      "ardens": 7433,
      "Ġcounty": 7434,
      "Ġconsideration": 7435,
      "Ġpersons": 7436,
      "DS": 7437,
      "Ġwash": 7438,
      "Ġlimits": 7439,
      "Ġpurchasing": 7440,
      "ystem": 7441,
      "Ð»": 7442,
      "Ġeast": 7443,
      "reement": 7444,
      "Ġtape": 7445,
      "Ġnoise": 7446,
      "Ġportfolio": 7447,
      "ĠMartin": 7448,
      "uster": 7449,
      "ĠLow": 7450,
      "ĠLittle": 7451,
      "Ġ800": 7452,
      "Ġcausing": 7453,
      "Ġpermanent": 7454,
      "Fi": 7455,
      "Int": 7456,
      "Ġflash": 7457,
      "Ġkm": 7458,
      "ĠSmall": 7459,
      "May": 7460,
      "ĠDub": 7461,
      "ĠYouTube": 7462,
      "Ġengaged": 7463,
      "Ġblocks": 7464,
      "Ġconnections": 7465,
      "ĠSouthern": 7466,
      "ĠCast": 7467,
      "ĠFOR": 7468,
      "arters": 7469,
      "plete": 7470,
      "Ġspecified": 7471,
      "Ġdiagram": 7472,
      "Ġmale": 7473,
      "agues": 7474,
      "Oh": 7475,
      "ĠSky": 7476,
      "Then": 7477,
      "Ġsuppliers": 7478,
      "Ġpackages": 7479,
      "Ġhoping": 7480,
      "urning": 7481,
      "ĠSearch": 7482,
      "Ġtracks": 7483,
      "ocated": 7484,
      "Ġphones": 7485,
      "Ġapproaches": 7486,
      "dney": 7487,
      "Ġlake": 7488,
      "Ġspoke": 7489,
      "Ġ2002": 7490,
      "Ġincreasingly": 7491,
      "Ġassembly": 7492,
      "98": 7493,
      "EA": 7494,
      "tics": 7495,
      "ĠWeek": 7496,
      "ipt": 7497,
      "Ġloving": 7498,
      "Ġvisible": 7499,
      "Ġpromise": 7500,
      "Great": 7501,
      "Ġbench": 7502,
      "ĠComput": 7503,
      "Ġoutcomes": 7504,
      "Ġmarked": 7505,
      "Per": 7506,
      "Ã³": 7507,
      "ĠAp": 7508,
      "Ġframework": 7509,
      "Ġviolence": 7510,
      "ĠDu": 7511,
      "ĠChris": 7512,
      "Ġbelieves": 7513,
      "zer": 7514,
      "inent": 7515,
      "ĠSanta": 7516,
      "Ġcertificate": 7517,
      "Ġinteractive": 7518,
      "Ġsending": 7519,
      "Ġviewed": 7520,
      "ĠAbout": 7521,
      "Ġregardless": 7522,
      "Ġpleasure": 7523,
      "Ġfighting": 7524,
      "Ġtor": 7525,
      "igate": 7526,
      "ĠLib": 7527,
      "Ġmemories": 7528,
      "63": 7529,
      "cular": 7530,
      "Ġpink": 7531,
      "ĠSn": 7532,
      "ĠSuch": 7533,
      "Ġtack": 7534,
      "ĠRoman": 7535,
      "Ġservers": 7536,
      "hew": 7537,
      "ĠBox": 7538,
      "Each": 7539,
      "ĠWi": 7540,
      "iece": 7541,
      "Ġamend": 7542,
      "Ġweekly": 7543,
      "Ġlawyer": 7544,
      "proof": 7545,
      "Ġexceptional": 7546,
      "ĠOhio": 7547,
      "Ġdestroy": 7548,
      "Ġsuffering": 7549,
      "Ġauthentic": 7550,
      "Ġyield": 7551,
      "Ġcareful": 7552,
      "ĠPrice": 7553,
      "Ġshooting": 7554,
      "ĠInsurance": 7555,
      "ĠCB": 7556,
      "ĠCR": 7557,
      "Ġwhilst": 7558,
      "ulating": 7559,
      "Ġherself": 7560,
      "Ġremark": 7561,
      "Ġbasically": 7562,
      "Ġpotentially": 7563,
      "Ġsensitive": 7564,
      "Next": 7565,
      "htt": 7566,
      "ĠPract": 7567,
      "phy": 7568,
      "Ġstring": 7569,
      "Ġcush": 7570,
      "ĠRa": 7571,
      "ĠOS": 7572,
      "Ġmarks": 7573,
      "Ġhydro": 7574,
      "Ġepisode": 7575,
      "Where": 7576,
      "ument": 7577,
      "Ġnuclear": 7578,
      "Ġnaturally": 7579,
      "Ġexpressed": 7580,
      "Ġwalked": 7581,
      "Ġcrowd": 7582,
      "Ġspin": 7583,
      "ivalent": 7584,
      "ĠMachine": 7585,
      "ĠFort": 7586,
      "ĠLive": 7587,
      "ĠVery": 7588,
      "Ġenjoying": 7589,
      "haust": 7590,
      "ĠCarolina": 7591,
      "Ã¶": 7592,
      "Ġcotton": 7593,
      "Ġnewly": 7594,
      "Ġsetup": 7595,
      "Ġjoining": 7596,
      "hops": 7597,
      "ĠMobile": 7598,
      "Ġintent": 7599,
      "Ġcorrectly": 7600,
      "ĠMarketing": 7601,
      "FC": 7602,
      "Ġcoat": 7603,
      "Ġposting": 7604,
      "ĠSpirit": 7605,
      "itan": 7606,
      "Ġmg": 7607,
      "ĠCook": 7608,
      "tense": 7609,
      "Ġlaptop": 7610,
      "bration": 7611,
      "gor": 7612,
      "gged": 7613,
      "Ġgraphics": 7614,
      "ĠTri": 7615,
      "Ġdoctors": 7616,
      "Ġsuggestions": 7617,
      "vas": 7618,
      "Ġdreams": 7619,
      "pat": 7620,
      "ĠEs": 7621,
      "Ġexposed": 7622,
      "Ġblind": 7623,
      "Ġminimal": 7624,
      "riers": 7625,
      "Ġcontaining": 7626,
      "Ġdiseases": 7627,
      "Ġlucky": 7628,
      "Ġë": 7629,
      "ĠLink": 7630,
      "Ġtox": 7631,
      "Ġinn": 7632,
      "ĠFre": 7633,
      "Ġchances": 7634,
      "Ġscores": 7635,
      "Ġincredibly": 7636,
      "Wor": 7637,
      "ĠCir": 7638,
      "iversary": 7639,
      "Ġrequests": 7640,
      "Ġconcepts": 7641,
      "born": 7642,
      "Ġconvert": 7643,
      "Ġopposite": 7644,
      "Ġcontainer": 7645,
      "Ġvictory": 7646,
      "nda": 7647,
      "Ġtooth": 7648,
      "ocation": 7649,
      "Ġvolunteers": 7650,
      "ĠJersey": 7651,
      "Ġwarn": 7652,
      "Ġmm": 7653,
      "Ġpermission": 7654,
      "Ġcrazy": 7655,
      "ĠClin": 7656,
      "bel": 7657,
      "Ġbare": 7658,
      "08": 7659,
      "Ġpra": 7660,
      "ĠSon": 7661,
      "uling": 7662,
      "ĠWhich": 7663,
      "ĠOrder": 7664,
      "Ġoverwhel": 7665,
      "olid": 7666,
      "ĠMS": 7667,
      "Ġunderst": 7668,
      "Ġrequested": 7669,
      "ĠJeff": 7670,
      "ouch": 7671,
      "Ġfib": 7672,
      "ĠDie": 7673,
      "iano": 7674,
      "Go": 7675,
      "Ġborrow": 7676,
      "Ġlists": 7677,
      "Ġ33": 7678,
      "Ġshouldn": 7679,
      "Ġsensor": 7680,
      "ĠShop": 7681,
      "Ġexhibition": 7682,
      "utch": 7683,
      "ĠBall": 7684,
      "Ġwooden": 7685,
      "âĢ³": 7686,
      "Ġstrict": 7687,
      "Ġdriven": 7688,
      "BM": 7689,
      "Ġworst": 7690,
      "Ġunw": 7691,
      "Ġtransaction": 7692,
      "Ġcomplicated": 7693,
      "Read": 7694,
      "onto": 7695,
      "Ġsharp": 7696,
      "Ġresort": 7697,
      "Ġaccord": 7698,
      "Ġjustice": 7699,
      "ĠBeaut": 7700,
      "Ġcalifornia": 7701,
      "ĠTravel": 7702,
      "Ġconsumption": 7703,
      "Ġreform": 7704,
      "ĠJun": 7705,
      "Ġforever": 7706,
      "Ġfunctionality": 7707,
      "Ã¤": 7708,
      "Ġdispos": 7709,
      "riger": 7710,
      "Ġacts": 7711,
      "iler": 7712,
      "aded": 7713,
      "Ġheating": 7714,
      "Ġpace": 7715,
      "ugs": 7716,
      "gypt": 7717,
      "à¸": 7718,
      "rer": 7719,
      "essel": 7720,
      "Ġphen": 7721,
      "ĠBlo": 7722,
      "Ġtransmission": 7723,
      "Ġpotato": 7724,
      "Ġstruggle": 7725,
      "eters": 7726,
      "Ġscope": 7727,
      "iverse": 7728,
      "Ġtagged": 7729,
      "irts": 7730,
      "Ġcontained": 7731,
      "Ġprison": 7732,
      "ĠOrig": 7733,
      "Ġretirement": 7734,
      "oir": 7735,
      "ĠBath": 7736,
      "ĠFollow": 7737,
      "erving": 7738,
      "Ġrefund": 7739,
      "Ġtraveling": 7740,
      "ĠSingapore": 7741,
      "!)": 7742,
      "uing": 7743,
      "pending": 7744,
      "ĠTraining": 7745,
      "62": 7746,
      "Ġshed": 7747,
      "Ġcomputers": 7748,
      "cons": 7749,
      "ĠGames": 7750,
      "ĠEnjoy": 7751,
      "Ġneighb": 7752,
      "Ġaccuracy": 7753,
      "ĠMichigan": 7754,
      "including": 7755,
      "ventional": 7756,
      "Ġmaintaining": 7757,
      "Ġscientists": 7758,
      "ĠPacific": 7759,
      "bar": 7760,
      "bits": 7761,
      "ĠCra": 7762,
      "Ġdetect": 7763,
      "Check": 7764,
      "Ġstreets": 7765,
      "liament": 7766,
      "Ġcolours": 7767,
      "Ġasset": 7768,
      "Ġreaction": 7769,
      "ĠFun": 7770,
      "Ġsofa": 7771,
      "Ġutility": 7772,
      "ĠNight": 7773,
      "ributes": 7774,
      "Ġtrips": 7775,
      "Ġcovering": 7776,
      "Ġpanels": 7777,
      "ags": 7778,
      "ĠHeart": 7779,
      "Ø§": 7780,
      "Ġ<": 7781,
      "Ġexpansion": 7782,
      "ĠPot": 7783,
      "ĠHa": 7784,
      "aints": 7785,
      "Ġheads": 7786,
      "Ġdelivering": 7787,
      "Ġentrance": 7788,
      "Ġhyper": 7789,
      "Ġspeakers": 7790,
      "uzz": 7791,
      "Ġrural": 7792,
      "ologist": 7793,
      "ĠFinancial": 7794,
      "Ġdollar": 7795,
      "Ġintense": 7796,
      "charge": 7797,
      "Ġskilled": 7798,
      "Ġtemporary": 7799,
      "Ġcalendar": 7800,
      "ĠSteve": 7801,
      "Ġrecognition": 7802,
      "Ġholidays": 7803,
      "02": 7804,
      "lers": 7805,
      "ĠUt": 7806,
      "Ġstaying": 7807,
      "Ġunexpected": 7808,
      "Rec": 7809,
      "och": 7810,
      "Ġpad": 7811,
      "amental": 7812,
      "Ġprogramming": 7813,
      "Ġforum": 7814,
      "ership": 7815,
      "'.": 7816,
      "ansas": 7817,
      "Ġrespectively": 7818,
      "Ġargument": 7819,
      "Ġnic": 7820,
      "Ġoutcome": 7821,
      "bridge": 7822,
      "Ġencouraged": 7823,
      "asting": 7824,
      "Ġincident": 7825,
      "Ġscreens": 7826,
      "Ġsupplement": 7827,
      "riculum": 7828,
      "holder": 7829,
      "Ġtoile": 7830,
      "ĠPA": 7831,
      "Ġvintage": 7832,
      "Ġ38": 7833,
      "Ġstorm": 7834,
      "ĠChampions": 7835,
      "Ġcombine": 7836,
      "Ġmaintained": 7837,
      "ĠRam": 7838,
      "Ġacceler": 7839,
      "Ġlowest": 7840,
      "rick": 7841,
      "Ġnarr": 7842,
      "Ġzero": 7843,
      "Ġhosted": 7844,
      "rect": 7845,
      "ĠFREE": 7846,
      "Ġrice": 7847,
      "ĠGir": 7848,
      "aken": 7849,
      "bing": 7850,
      "ĠFord": 7851,
      "uma": 7852,
      "ogether": 7853,
      "Ġelectron": 7854,
      "Ġcharacteristics": 7855,
      "Ġobserved": 7856,
      "ĠSales": 7857,
      "Ġelegant": 7858,
      "page": 7859,
      "ĠBon": 7860,
      "Ġbull": 7861,
      "ali": 7862,
      "eping": 7863,
      "Ġobst": 7864,
      "Ġdefinition": 7865,
      "ĠBrazil": 7866,
      "Ġhopes": 7867,
      "Ġlaugh": 7868,
      "ĠRight": 7869,
      "ĠRoll": 7870,
      "Ġmeets": 7871,
      "Ġtransactions": 7872,
      "Ġlisting": 7873,
      "Ġfunny": 7874,
      "Ġchecking": 7875,
      "ĠMountain": 7876,
      "Ġswimming": 7877,
      "anes": 7878,
      "Ġhurt": 7879,
      "Ġblank": 7880,
      "Ġdropped": 7881,
      "Ġtrim": 7882,
      "Ġnecessarily": 7883,
      "Ġproposal": 7884,
      "ĠStock": 7885,
      "Ġye": 7886,
      "ĠHon": 7887,
      "Ġpersonality": 7888,
      "Ġassume": 7889,
      "03": 7890,
      "sis": 7891,
      "ĠBell": 7892,
      "Ġalumin": 7893,
      "ĠWorks": 7894,
      "ilipp": 7895,
      "Ġsubscrib": 7896,
      "Ġeggs": 7897,
      "Ġeverywhere": 7898,
      "Ġmarriage": 7899,
      "Ġliterally": 7900,
      "Ġphotographs": 7901,
      "Ġdivid": 7902,
      "Ġrecover": 7903,
      "ounter": 7904,
      "Ġobviously": 7905,
      "ellectual": 7906,
      "igent": 7907,
      "Ġconsultation": 7908,
      "ĠHaving": 7909,
      "ults": 7910,
      "ĠProper": 7911,
      "Ġintegration": 7912,
      "Ġempty": 7913,
      "tes": 7914,
      "Ġcenters": 7915,
      "ĠEnvironment": 7916,
      "Ġcarrying": 7917,
      "ĠEp": 7918,
      "Ġunus": 7919,
      "ĠYet": 7920,
      "stery": 7921,
      "ĠTax": 7922,
      "owers": 7923,
      "ĠRef": 7924,
      "!!!!": 7925,
      "Ġassigned": 7926,
      "ĠSilver": 7927,
      "uct": 7928,
      "Ġorange": 7929,
      "Ġanyway": 7930,
      "Ðº": 7931,
      "ĠSar": 7932,
      "Ġfeelings": 7933,
      "ĠJoe": 7934,
      "Rem": 7935,
      "Ġstuck": 7936,
      "ĠJones": 7937,
      "Ġcarpet": 7938,
      "Ġsignature": 7939,
      "Ġcrack": 7940,
      "Note": 7941,
      "ĠHoly": 7942,
      "Ġinvolving": 7943,
      "Ġsurprising": 7944,
      "bury": 7945,
      "osc": 7946,
      "ĠNon": 7947,
      "ĠNorthern": 7948,
      "Ġkil": 7949,
      "ĠKnow": 7950,
      "phones": 7951,
      "annel": 7952,
      "Ġceiling": 7953,
      "Ġvolunteer": 7954,
      "Ġintelligence": 7955,
      "Ġgained": 7956,
      "raid": 7957,
      "ĠYoung": 7958,
      "Ġdivision": 7959,
      "Ġmodule": 7960,
      "Ġexhaust": 7961,
      "acious": 7962,
      "Who": 7963,
      "Ġindicate": 7964,
      "ĠIrish": 7965,
      "ĠWordPress": 7966,
      "yal": 7967,
      "ĠRose": 7968,
      "print": 7969,
      "Ġemployer": 7970,
      "ĠHard": 7971,
      "Ġlets": 7972,
      "Ġranking": 7973,
      "Ġtum": 7974,
      "Ġhate": 7975,
      "Ġyoga": 7976,
      "Ġspray": 7977,
      "Ġcurtain": 7978,
      "Ġlesson": 7979,
      "Ġpreparing": 7980,
      "Ġoblig": 7981,
      "Ġstudying": 7982,
      "Ġvenue": 7983,
      "wan": 7984,
      "Ġyours": 7985,
      "izza": 7986,
      "onym": 7987,
      "Ġguaranteed": 7988,
      "aniel": 7989,
      "ĠMembers": 7990,
      "CD": 7991,
      "Will": 7992,
      "market": 7993,
      "press": 7994,
      "Ġstir": 7995,
      "Ġrising": 7996,
      "Ġrepairs": 7997,
      "ĠSports": 7998,
      "Ġkeyword": 7999,
      "Ġdamaged": 8000,
      "Ġcriteria": 8001,
      "Ġjewel": 8002,
      "Ġfits": 8003,
      "Ġdishes": 8004,
      "anned": 8005,
      "ĠArea": 8006,
      "See": 8007,
      "redit": 8008,
      "Ġhomeown": 8009,
      "lessly": 8010,
      "being": 8011,
      "Ġque": 8012,
      "Ġpride": 8013,
      "rage": 8014,
      "Ġconvey": 8015,
      "Ġadequ": 8016,
      "Ġresidence": 8017,
      "Ġlifetime": 8018,
      "ĠKingdom": 8019,
      "ĠJackson": 8020,
      "Ġbars": 8021,
      "Ġgym": 8022,
      "ĠCro": 8023,
      "Ġstations": 8024,
      "Ġcomplim": 8025,
      "brid": 8026,
      "ĠBuy": 8027,
      "ĠPolice": 8028,
      "Ġterrit": 8029,
      "cut": 8030,
      "Ġsail": 8031,
      "orous": 8032,
      "Ġexplan": 8033,
      "Ġexplains": 8034,
      "Ġdebut": 8035,
      "Ġpolitics": 8036,
      "Ġlift": 8037,
      "raq": 8038,
      "ĠTele": 8039,
      "Ġlegislation": 8040,
      "Ġhole": 8041,
      "ĠAwards": 8042,
      "ĠBang": 8043,
      "Ġabuse": 8044,
      "formance": 8045,
      "Ġflexibility": 8046,
      "itable": 8047,
      "Ġcann": 8048,
      "Ġenroll": 8049,
      "Ġpossess": 8050,
      "Ġpromotion": 8051,
      "ĠWilliams": 8052,
      "Ġentitled": 8053,
      "ns": 8054,
      "sup": 8055,
      "Ġchairs": 8056,
      "ĠAndrew": 8057,
      "Ġdebate": 8058,
      "Ġrepeated": 8059,
      "Americ": 8060,
      "Ġstable": 8061,
      "Ġassociation": 8062,
      "char": 8063,
      "ĠQuality": 8064,
      "Ġdemands": 8065,
      "ESS": 8066,
      "Ġtons": 8067,
      "Ġpit": 8068,
      "Ġstead": 8069,
      "Ġalt": 8070,
      "Ġinstruction": 8071,
      "ĠColorado": 8072,
      "HA": 8073,
      "Ġlib": 8074,
      "ĠHor": 8075,
      "Ġdemonstrate": 8076,
      "ĠRichard": 8077,
      "ĠIdeas": 8078,
      "Ġtissue": 8079,
      "SL": 8080,
      "ĠCub": 8081,
      "Ġsections": 8082,
      "Ġshots": 8083,
      "ĠEgypt": 8084,
      "Ġfinest": 8085,
      "Ġbelt": 8086,
      "Ġ1990": 8087,
      "Ġobjective": 8088,
      "Ġaer": 8089,
      "Ġgentle": 8090,
      "ĠEst": 8091,
      "Ġhasn": 8092,
      "Ġgreatly": 8093,
      "Ġdirected": 8094,
      "coin": 8095,
      "Ġvolt": 8096,
      "Ġrevolution": 8097,
      "sue": 8098,
      "uis": 8099,
      "Ġvessel": 8100,
      "ĠSmart": 8101,
      "Ġhttps": 8102,
      "remony": 8103,
      "CO": 8104,
      "iana": 8105,
      "ĠUnfortunately": 8106,
      "Ġski": 8107,
      "Ġstrange": 8108,
      "Ġfactory": 8109,
      "ĠBritain": 8110,
      "bell": 8111,
      "Ġspark": 8112,
      "Ġ37": 8113,
      "Ġdesigners": 8114,
      "Ġlargely": 8115,
      "Ġbone": 8116,
      "ĠFile": 8117,
      "Ġinitiative": 8118,
      "300": 8119,
      "Ġtalks": 8120,
      "ĠFL": 8121,
      "Ġphr": 8122,
      "Ġsubjects": 8123,
      "ĠShould": 8124,
      "Ġpublication": 8125,
      "Ġtermin": 8126,
      "Ġbeneficial": 8127,
      "Ġoccurs": 8128,
      "Ġtelephone": 8129,
      "Ġreligion": 8130,
      "rat": 8131,
      "Ġfilling": 8132,
      "Ġdual": 8133,
      "Ġdrinking": 8134,
      "Ġrapidly": 8135,
      "Ġinteraction": 8136,
      "Ġchecked": 8137,
      "ĠStudies": 8138,
      "Ġwarranty": 8139,
      "Ġwave": 8140,
      "Ġhes": 8141,
      "Ġneut": 8142,
      "ĠBrand": 8143,
      "Ġseed": 8144,
      "Ġ250": 8145,
      "empl": 8146,
      "ĠSpain": 8147,
      "Ġdrawn": 8148,
      "Ġpulled": 8149,
      "Ġmit": 8150,
      "ĠLLC": 8151,
      "cover": 8152,
      "Ġfrequency": 8153,
      "cm": 8154,
      "unicip": 8155,
      "Ġequivalent": 8156,
      "Ġrepresentative": 8157,
      "TR": 8158,
      "iki": 8159,
      "Ġroads": 8160,
      "Ġoccurred": 8161,
      "Ġgap": 8162,
      "Ġplot": 8163,
      "Ġbirds": 8164,
      "Ġmole": 8165,
      "Ġalive": 8166,
      "Ġresponses": 8167,
      "ĠProfessional": 8168,
      "Mr": 8169,
      "amber": 8170,
      "ials": 8171,
      "una": 8172,
      "ĠPage": 8173,
      "ĠWH": 8174,
      "rible": 8175,
      "ĠAdditionally": 8176,
      "61": 8177,
      "ih": 8178,
      "ĠAgreement": 8179,
      "Ġcouncil": 8180,
      "Ġemails": 8181,
      "Ġdrinks": 8182,
      "cue": 8183,
      "Ġappointed": 8184,
      "Ġgate": 8185,
      "ĠFriend": 8186,
      "ĠRights": 8187,
      "Ġengaging": 8188,
      "Ġautomatic": 8189,
      "ĠDivision": 8190,
      "abetes": 8191,
      "ĠNever": 8192,
      "ĠOk": 8193,
      "Ġwheels": 8194,
      "Ġcompletion": 8195,
      "Ġinvestments": 8196,
      "Ġworkshops": 8197,
      "Ġwithdraw": 8198,
      "eras": 8199,
      "ĠCON": 8200,
      "Ġjun": 8201,
      "ampion": 8202,
      "Ġgrace": 8203,
      "Ġconvenience": 8204,
      "ĠPrint": 8205,
      "Ġtexture": 8206,
      "Ġacquis": 8207,
      "Ġutilize": 8208,
      "800": 8209,
      "Ġera": 8210,
      "Ġtile": 8211,
      "Ġbills": 8212,
      "Ġreact": 8213,
      "eto": 8214,
      "ĠOnt": 8215,
      "odge": 8216,
      "ounded": 8217,
      "Ġaircraft": 8218,
      "ĠCommon": 8219,
      "cific": 8220,
      "itis": 8221,
      "Ġcoal": 8222,
      "Ġprayer": 8223,
      "Ġheaded": 8224,
      "vo": 8225,
      "Ġcord": 8226,
      "Ġpul": 8227,
      "Ġmood": 8228,
      "agen": 8229,
      "Ġbuff": 8230,
      "Ġentering": 8231,
      "ĠDecor": 8232,
      "Ġaccommodation": 8233,
      "Ġsubstantial": 8234,
      "07": 8235,
      "zed": 8236,
      "Ġtomat": 8237,
      "Ġindu": 8238,
      "Ġhat": 8239,
      "Ġreception": 8240,
      "iform": 8241,
      "ĠKn": 8242,
      "Ġ55": 8243,
      "ĠConf": 8244,
      "Ġintroduce": 8245,
      "cur": 8246,
      "iti": 8247,
      "ĠLook": 8248,
      "Ġalter": 8249,
      "Ġkeys": 8250,
      "ĠSydney": 8251,
      "criptions": 8252,
      "CL": 8253,
      "Ġbab": 8254,
      "ĠEX": 8255,
      "hyd": 8256,
      "atellite": 8257,
      "Ġspots": 8258,
      "aze": 8259,
      "Ġengines": 8260,
      "Ġimprovements": 8261,
      "Ġevaluate": 8262,
      "Ġisol": 8263,
      "Ġstages": 8264,
      "Ġsecondary": 8265,
      "Ġafraid": 8266,
      "ĠLearn": 8267,
      "ĠTal": 8268,
      "ĠFour": 8269,
      "acon": 8270,
      "ificial": 8271,
      "Ġgeneric": 8272,
      "ĠÂ©": 8273,
      "Ġlayers": 8274,
      "ĠAdministration": 8275,
      "days": 8276,
      "lyn": 8277,
      "igen": 8278,
      "Ġstrongly": 8279,
      "ï¿½ï¿½": 8280,
      "Ġgiant": 8281,
      "ĠThough": 8282,
      "Ġrecyc": 8283,
      "Ġorganisation": 8284,
      "97": 8285,
      "ruption": 8286,
      "Lear": 8287,
      "Ġtill": 8288,
      "imal": 8289,
      "ĠCult": 8290,
      "Ġscored": 8291,
      "ĠProfessor": 8292,
      "Sm": 8293,
      "books": 8294,
      "Ġtact": 8295,
      "Ġdowntown": 8296,
      "ĠEss": 8297,
      "ĠSummer": 8298,
      "ĠWatch": 8299,
      "ensus": 8300,
      "Ġbeds": 8301,
      "Before": 8302,
      "bourne": 8303,
      "ĠKitchen": 8304,
      "ĠUSB": 8305,
      "ĠPolicy": 8306,
      "ĠHawai": 8307,
      "Use": 8308,
      "oof": 8309,
      "Ġriding": 8310,
      "Make": 8311,
      "mg": 8312,
      "Ġpitch": 8313,
      "Ġhook": 8314,
      "ĠDri": 8315,
      "acher": 8316,
      "Ġpocket": 8317,
      "ĠSection": 8318,
      "Ġbuyer": 8319,
      "ĠMedicine": 8320,
      "Ġtemperatures": 8321,
      "iac": 8322,
      "Ġbaking": 8323,
      "Ġneither": 8324,
      "Ġshell": 8325,
      "Ġfaced": 8326,
      "Ġparticipation": 8327,
      "Ġgranted": 8328,
      "Su": 8329,
      "ko": 8330,
      "áĥ": 8331,
      "Ġwise": 8332,
      "ashed": 8333,
      "Ġdeeper": 8334,
      "ĠLocal": 8335,
      "ĠAsian": 8336,
      "Ġcatalog": 8337,
      "Ġinstitution": 8338,
      "Fe": 8339,
      "Ġfest": 8340,
      "ĠIraq": 8341,
      "ĠSup": 8342,
      "Ġfundamental": 8343,
      "Ġarrival": 8344,
      "Ġinitially": 8345,
      "Ġanxiety": 8346,
      "Ġunderstood": 8347,
      "icious": 8348,
      "Ġhiring": 8349,
      "ĠEll": 8350,
      "Ġstronger": 8351,
      "Ġliterature": 8352,
      "Ġloose": 8353,
      "Ġtalked": 8354,
      "Ġratio": 8355,
      "Ġprovision": 8356,
      "ĠSoftware": 8357,
      "Ġvert": 8358,
      "Ġcomprom": 8359,
      "Ġdecent": 8360,
      "Ġnights": 8361,
      "Ġfloors": 8362,
      "Ġbroadcast": 8363,
      "Ġsatisfied": 8364,
      "arl": 8365,
      "Ġremained": 8366,
      "Ġadvent": 8367,
      "Ġdisplays": 8368,
      "gorith": 8369,
      "%,": 8370,
      "ĠSM": 8371,
      "ĠAff": 8372,
      "Ġseeds": 8373,
      "Ġtradem": 8374,
      "mercial": 8375,
      "limited": 8376,
      "ĠCasino": 8377,
      "PM": 8378,
      "gments": 8379,
      "ctic": 8380,
      "sell": 8381,
      "Ġclimb": 8382,
      "Ġreprodu": 8383,
      "Ġfalling": 8384,
      "Ġfascin": 8385,
      "Ġbid": 8386,
      "arry": 8387,
      "ateful": 8388,
      "ĠJon": 8389,
      "ĠSteel": 8390,
      "ĠMeet": 8391,
      "amsung": 8392,
      "Ġspectac": 8393,
      "ĠCatholic": 8394,
      "Ġtired": 8395,
      "ĠPersonal": 8396,
      "ĠDid": 8397,
      "Ġleague": 8398,
      "lude": 8399,
      "Ġmodified": 8400,
      "Ġdefine": 8401,
      "ĠWrit": 8402,
      "ĠLine": 8403,
      "Ġharder": 8404,
      "teen": 8405,
      "Ġboot": 8406,
      "Ġacquire": 8407,
      "ĠGeorgia": 8408,
      "otive": 8409,
      "Ġclock": 8410,
      "Ġadvantages": 8411,
      "Ġjuice": 8412,
      "rizona": 8413,
      "UM": 8414,
      "elly": 8415,
      "Ġ65": 8416,
      "chester": 8417,
      "Ġhoriz": 8418,
      "ĠSquare": 8419,
      "Ġhi": 8420,
      "Ġorient": 8421,
      "Ġedit": 8422,
      "ĠConnect": 8423,
      "Ġexploring": 8424,
      "ĠStudio": 8425,
      "Ġregulatory": 8426,
      "ĠGallery": 8427,
      "Ġdad": 8428,
      "ĠBa": 8429,
      "Ġvisits": 8430,
      "anna": 8431,
      "Ġcalm": 8432,
      "Ġimplemented": 8433,
      "Ġpollut": 8434,
      "po": 8435,
      "ìĿ": 8436,
      "ifer": 8437,
      "ĠWalk": 8438,
      "Ġoperated": 8439,
      "vironments": 8440,
      "Ġexistence": 8441,
      "Ġcelebration": 8442,
      "Ġaims": 8443,
      "isms": 8444,
      "Ġlies": 8445,
      "Ġlie": 8446,
      "otal": 8447,
      "Ġhaz": 8448,
      "ccer": 8449,
      "Ġwaters": 8450,
      "DP": 8451,
      "Ġstudied": 8452,
      "ĠAsh": 8453,
      "Ġfaces": 8454,
      "ĠMinistry": 8455,
      "ifting": 8456,
      "Ġexists": 8457,
      "Ġestimate": 8458,
      "rooms": 8459,
      "mble": 8460,
      "olt": 8461,
      "oper": 8462,
      "Ġunknown": 8463,
      "iances": 8464,
      "Ġdurable": 8465,
      "inery": 8466,
      "hr": 8467,
      "ifier": 8468,
      "Ġcompensation": 8469,
      "Ġtwenty": 8470,
      "Ġconsent": 8471,
      "Ġtablet": 8472,
      "OK": 8473,
      "bro": 8474,
      "stall": 8475,
      "Ġpeak": 8476,
      "Ġcoupon": 8477,
      "Ġ01": 8478,
      "nders": 8479,
      "Ġpounds": 8480,
      "Ġgod": 8481,
      "oto": 8482,
      "Ġstamp": 8483,
      "ifully": 8484,
      "ĠDrive": 8485,
      "Ġconfiguration": 8486,
      "Ġillegal": 8487,
      "ashes": 8488,
      "Ġwanting": 8489,
      "Ġopens": 8490,
      "cal": 8491,
      "Ġfindings": 8492,
      "Ġlanguages": 8493,
      "Ġcontribution": 8494,
      "Ġforgot": 8495,
      "Ġtutorial": 8496,
      "Ġ1999": 8497,
      "Ġsubsid": 8498,
      "Ġbub": 8499,
      "omy": 8500,
      "adow": 8501,
      "ĠOak": 8502,
      "Ġdeveloper": 8503,
      "Ġpacked": 8504,
      "Ġenthusi": 8505,
      "AY": 8506,
      "Ġtone": 8507,
      "itate": 8508,
      "acter": 8509,
      "Ġequity": 8510,
      "iscal": 8511,
      "ĠSenior": 8512,
      "ĠLiving": 8513,
      "Ġspa": 8514,
      "Ġfinds": 8515,
      "Ġboards": 8516,
      "ĠMcC": 8517,
      "Find": 8518,
      "isdom": 8519,
      "Ġpatch": 8520,
      "Ġsex": 8521,
      "ĠNig": 8522,
      "Ġclicking": 8523,
      "Ġvisitor": 8524,
      "Ġfarmers": 8525,
      "54": 8526,
      "Ġouts": 8527,
      "Ġresid": 8528,
      "Ġprize": 8529,
      "Ġrepresented": 8530,
      "BI": 8531,
      "ĠTR": 8532,
      "ĠMah": 8533,
      "ĠVideo": 8534,
      "ĠAgency": 8535,
      "ollywood": 8536,
      "pire": 8537,
      "Ġtie": 8538,
      "Ġflying": 8539,
      "umer": 8540,
      "ĠStat": 8541,
      "Ġpepper": 8542,
      "Ġcrypt": 8543,
      "Ġphilosophy": 8544,
      "ping": 8545,
      "pson": 8546,
      "LS": 8547,
      "heast": 8548,
      "Ġacting": 8549,
      "Ġviewing": 8550,
      "Post": 8551,
      "fall": 8552,
      "ĠPS": 8553,
      "ĠStation": 8554,
      "ĠArmy": 8555,
      "atile": 8556,
      "Ġfinger": 8557,
      "ĠStone": 8558,
      "Ġbrush": 8559,
      "Ġobjectives": 8560,
      "Take": 8561,
      "inet": 8562,
      "sts": 8563,
      "Ġsculpt": 8564,
      "Ġcircle": 8565,
      "ĠMuslim": 8566,
      "VER": 8567,
      "Ġfiber": 8568,
      "ila": 8569,
      "ĠCountry": 8570,
      "Ġstatistics": 8571,
      "Ġcontinuous": 8572,
      "onso": 8573,
      "Ġsegment": 8574,
      "issions": 8575,
      "Ġpersonnel": 8576,
      "Ġperiods": 8577,
      "Ġbedrooms": 8578,
      "ĠPhoto": 8579,
      "06": 8580,
      "Ġtherap": 8581,
      "ĠFar": 8582,
      "Ġediting": 8583,
      "Ġantib": 8584,
      "Ġclosing": 8585,
      "ĠModern": 8586,
      "Sec": 8587,
      "ckets": 8588,
      "Ġ39": 8589,
      "ĠExam": 8590,
      "Ġemployers": 8591,
      "EP": 8592,
      "Good": 8593,
      "ervations": 8594,
      "Ġending": 8595,
      "Ġattending": 8596,
      "Ġeliminate": 8597,
      "Ġorganisations": 8598,
      "Love": 8599,
      "iology": 8600,
      "Ġreaching": 8601,
      "Ġprotocol": 8602,
      "Ġsophist": 8603,
      "ige": 8604,
      "Ġthemes": 8605,
      "ĠCharles": 8606,
      "ĠFrancisco": 8607,
      "Ġequally": 8608,
      "ĠSpace": 8609,
      "Ġfocuses": 8610,
      "Ġscrew": 8611,
      "Ġpromoting": 8612,
      "Ġwatched": 8613,
      "Welcome": 8614,
      "ĠTool": 8615,
      "Ġhack": 8616,
      "Ġventure": 8617,
      "Ġformation": 8618,
      "Ġbreaking": 8619,
      "tical": 8620,
      "ĠSus": 8621,
      "ĠBit": 8622,
      "Ġchampions": 8623,
      "Ġcreativity": 8624,
      "ĠAnnual": 8625,
      "bage": 8626,
      "ĠHT": 8627,
      "Ġsen": 8628,
      "Ġham": 8629,
      "terest": 8630,
      "Ġpermit": 8631,
      "Ġraising": 8632,
      "ĠLearning": 8633,
      "Ġbrilliant": 8634,
      "09": 8635,
      "ĠFac": 8636,
      "Ġrefresh": 8637,
      "Ġconcert": 8638,
      "Ġproductivity": 8639,
      "sized": 8640,
      "Ġimper": 8641,
      "AND": 8642,
      "ĠAgain": 8643,
      "ĠFinally": 8644,
      "Ġinvite": 8645,
      "Stud": 8646,
      "ĠJohnson": 8647,
      "56": 8648,
      "foot": 8649,
      "âĢī": 8650,
      "Ġru": 8651,
      "Ġsuffe": 8652,
      "Ġlocks": 8653,
      "ĠUk": 8654,
      "ĠProcess": 8655,
      "Ġmedication": 8656,
      "Ġdrain": 8657,
      "Ġinitiatives": 8658,
      "Ġadopted": 8659,
      "Whether": 8660,
      "Ġlatter": 8661,
      "ĠRen": 8662,
      "Ġjur": 8663,
      "Ġenvironments": 8664,
      "Ġapplies": 8665,
      "Ġcock": 8666,
      "ĠAirport": 8667,
      "Ġdecrease": 8668,
      "ãĥ": 8669,
      "llo": 8670,
      "etch": 8671,
      "Ġamen": 8672,
      "Ġrefriger": 8673,
      "Ġdeeply": 8674,
      "RC": 8675,
      "rif": 8676,
      "ĠTer": 8677,
      "ĠPut": 8678,
      "Ġevolution": 8679,
      "Ġinsights": 8680,
      "Ġinjured": 8681,
      "Ġmountains": 8682,
      "Ġinventory": 8683,
      "Ġalgorith": 8684,
      "Ġanymore": 8685,
      "Ġ34": 8686,
      "Ġimportantly": 8687,
      "Ġcontracts": 8688,
      "ĠSciences": 8689,
      "Ġconscious": 8690,
      "Ġfocusing": 8691,
      "Ġrespective": 8692,
      "Ġquotes": 8693,
      "alysis": 8694,
      "Ġlens": 8695,
      "ĠSav": 8696,
      "earing": 8697,
      "Ġsheets": 8698,
      "ĠiOS": 8699,
      "ĠToronto": 8700,
      "osa": 8701,
      "Ġspir": 8702,
      "Ġexamination": 8703,
      "Ġcasual": 8704,
      "Reg": 8705,
      "Ġconclusion": 8706,
      "Ġlaser": 8707,
      "Ġhel": 8708,
      "ĠBh": 8709,
      "Ġalign": 8710,
      "Ġattitude": 8711,
      "Ġspecialists": 8712,
      "ĠPhilipp": 8713,
      "ĠVillage": 8714,
      "step": 8715,
      "Ġabund": 8716,
      "aka": 8717,
      "Ġclaimed": 8718,
      "Ġacquired": 8719,
      "ped": 8720,
      "Ġdiversity": 8721,
      "Ġstainless": 8722,
      "ĠProm": 8723,
      "ĠLat": 8724,
      "Ġadj": 8725,
      "Ġemployed": 8726,
      "ĠBlu": 8727,
      "ĠCorporation": 8728,
      "Ġtrusted": 8729,
      "Ġaccordance": 8730,
      "uous": 8731,
      "encing": 8732,
      "Ġdil": 8733,
      "ĠJoseph": 8734,
      "Ġwarning": 8735,
      "Ġgaming": 8736,
      "ĠSale": 8737,
      "ludes": 8738,
      "Ġheading": 8739,
      "Ġamongst": 8740,
      "Ġdocumentation": 8741,
      "Looking": 8742,
      "TP": 8743,
      "ĠÎ": 8744,
      "lections": 8745,
      "ĠSH": 8746,
      "adium": 8747,
      "sole": 8748,
      "Ġ64": 8749,
      "Ġcurriculum": 8750,
      "Ġparticipating": 8751,
      "person": 8752,
      "Ġdough": 8753,
      "Ġlaid": 8754,
      "Ġceremony": 8755,
      "ĠSafety": 8756,
      "ĠEastern": 8757,
      "Ġmac": 8758,
      "Ġflights": 8759,
      "Ġpainted": 8760,
      "ĠSwed": 8761,
      "Ġuniversities": 8762,
      "UD": 8763,
      "Ġstood": 8764,
      "oli": 8765,
      "andon": 8766,
      "Ġreveal": 8767,
      "Ġcompatible": 8768,
      "Sim": 8769,
      "epend": 8770,
      "swe": 8771,
      "Ġmild": 8772,
      "urities": 8773,
      "aya": 8774,
      "Ġmaps": 8775,
      "Ġreturning": 8776,
      "flow": 8777,
      "umni": 8778,
      "Ġcolleagues": 8779,
      "Ġresolve": 8780,
      "Ġstability": 8781,
      "quis": 8782,
      "Ġcheaper": 8783,
      "Ġplane": 8784,
      "RL": 8785,
      "iour": 8786,
      "making": 8787,
      "Ġhub": 8788,
      "ĠPen": 8789,
      "ĠEnt": 8790,
      "Ġelected": 8791,
      "tail": 8792,
      "Ġpp": 8793,
      "ceived": 8794,
      "Ġrecruit": 8795,
      "Ġensures": 8796,
      "Ġkeyboard": 8797,
      "Ġwondering": 8798,
      "ĠKorea": 8799,
      "Ġinspection": 8800,
      "89": 8801,
      "produ": 8802,
      "Ġgene": 8803,
      "ĠDVD": 8804,
      "onda": 8805,
      "Ġmechanical": 8806,
      "Ġmerely": 8807,
      "Ġchips": 8808,
      "Ġaccounting": 8809,
      "Ġsolo": 8810,
      "ĠGuys": 8811,
      "orses": 8812,
      "Ġintellectual": 8813,
      "2018": 8814,
      "Ġtitles": 8815,
      "Ġconsequences": 8816,
      "51": 8817,
      "Ġcul": 8818,
      "Ġfing": 8819,
      "Ġbunch": 8820,
      "ĠPak": 8821,
      "Ġpubl": 8822,
      "Ġsafely": 8823,
      "Ġownership": 8824,
      "Other": 8825,
      "Ġsed": 8826,
      "ĠHun": 8827,
      "ĠLy": 8828,
      "Ġplain": 8829,
      "pled": 8830,
      "ĠMotor": 8831,
      "ĠOntario": 8832,
      "power": 8833,
      "sen": 8834,
      "tons": 8835,
      "uten": 8836,
      "ĠMat": 8837,
      "ĠJac": 8838,
      "ĠStill": 8839,
      "Ġformula": 8840,
      "Ġchildhood": 8841,
      "ĠRepair": 8842,
      "pany": 8843,
      "Ġintention": 8844,
      "Ġsouthern": 8845,
      "Ġexterior": 8846,
      "Ġshirt": 8847,
      "Ġworship": 8848,
      "Ġbranch": 8849,
      "ĠBeing": 8850,
      "Ġcopyright": 8851,
      "Ed": 8852,
      "ĠSem": 8853,
      "ĠKind": 8854,
      "ERE": 8855,
      "Ġcompete": 8856,
      "2019": 8857,
      "ĠNO": 8858,
      "graduate": 8859,
      "low": 8860,
      "aters": 8861,
      "Ġine": 8862,
      "Ġweren": 8863,
      "Ġtalented": 8864,
      "ĠStudent": 8865,
      "Ġcampaigns": 8866,
      "ĠConsult": 8867,
      "Ġrubber": 8868,
      "Mar": 8869,
      "Pr": 8870,
      "ĠGro": 8871,
      "Ġsupplied": 8872,
      "ĠChem": 8873,
      "Because": 8874,
      "rite": 8875,
      "ĠArizona": 8876,
      "ĠPo": 8877,
      "ĠBE": 8878,
      "Ġseam": 8879,
      "Ġ1000": 8880,
      "this": 8881,
      "ĠThree": 8882,
      "Ġdamages": 8883,
      "ĠSecretary": 8884,
      "87": 8885,
      "isa": 8886,
      "Ġprivile": 8887,
      "Ġcontributions": 8888,
      "86": 8889,
      "Ġseal": 8890,
      "ĠDO": 8891,
      "Ġconcentration": 8892,
      "athered": 8893,
      "ĠMember": 8894,
      "ĠOil": 8895,
      "Ġprofessor": 8896,
      "Ġsuffer": 8897,
      "Ġcabinet": 8898,
      "ĠCli": 8899,
      "ĠHold": 8900,
      "ĠFather": 8901,
      "Ġindicated": 8902,
      "Ġdess": 8903,
      "ĠFoot": 8904,
      "Ġmuscles": 8905,
      "theless": 8906,
      "NC": 8907,
      "olar": 8908,
      "ĠFox": 8909,
      "Ġadmin": 8910,
      "Ġtemplates": 8911,
      "53": 8912,
      "ĠNatural": 8913,
      "Ġrecre": 8914,
      "Ġgender": 8915,
      "Ġcher": 8916,
      "oted": 8917,
      "ĠCapt": 8918,
      "ador": 8919,
      "ĠDan": 8920,
      "ĠUr": 8921,
      "Ġbroke": 8922,
      "Ġalarm": 8923,
      "Ġpassionate": 8924,
      "Gu": 8925,
      "Ġtube": 8926,
      "unn": 8927,
      "ĠDog": 8928,
      "Ġvalve": 8929,
      "ĠAlp": 8930,
      "Ġcompact": 8931,
      "Ġcomplement": 8932,
      "iate": 8933,
      "sa": 8934,
      "ĠNC": 8935,
      "Ġperm": 8936,
      "ĠLeg": 8937,
      "axy": 8938,
      "Ġnursing": 8939,
      "Ġunusual": 8940,
      "AV": 8941,
      "Ġaest": 8942,
      "ĠLabor": 8943,
      "awa": 8944,
      "ĠRemember": 8945,
      "GA": 8946,
      "ĠFact": 8947,
      "visor": 8948,
      "Ġgraphic": 8949,
      "Ġtours": 8950,
      "ĠBul": 8951,
      "ĠWould": 8952,
      "ditional": 8953,
      "Ġpackaging": 8954,
      "Up": 8955,
      "Ġsought": 8956,
      "itative": 8957,
      "Ġbeans": 8958,
      "ĠTheatre": 8959,
      "ĠHou": 8960,
      "izz": 8961,
      "Ġreserved": 8962,
      "Ġracing": 8963,
      "Ġrelating": 8964,
      "Ġmeasured": 8965,
      "Ġrepresentatives": 8966,
      "Ġstrike": 8967,
      "Spe": 8968,
      "estion": 8969,
      "assion": 8970,
      "ĠCloud": 8971,
      "ĠPerhaps": 8972,
      "Ġfruits": 8973,
      "FA": 8974,
      "Ġax": 8975,
      "Ġbat": 8976,
      "Ġranging": 8977,
      "ĠKids": 8978,
      "Ġfinancing": 8979,
      "Ġministry": 8980,
      "Ġchest": 8981,
      "Ġcurrency": 8982,
      "screen": 8983,
      "Ġdesktop": 8984,
      "Ġlegisl": 8985,
      "ðŁ": 8986,
      "Ġox": 8987,
      "ĠPsych": 8988,
      "ĠHR": 8989,
      "aha": 8990,
      "Ġentrepreneurs": 8991,
      "run": 8992,
      "adel": 8993,
      "ĠField": 8994,
      "Ġoppon": 8995,
      "uset": 8996,
      "ĠEvent": 8997,
      "elling": 8998,
      "Ġgrateful": 8999,
      "ĠModel": 9000,
      "Ġmistake": 9001,
      "hour": 9002,
      "oding": 9003,
      "Ġimpression": 9004,
      "Ġlocally": 9005,
      "Ġcourts": 9006,
      "ĠDeath": 9007,
      "Ġcontractors": 9008,
      "gent": 9009,
      "giving": 9010,
      "vity": 9011,
      "month": 9012,
      "Ġdirections": 9013,
      "ĠProducts": 9014,
      "400": 9015,
      "iary": 9016,
      "ĠLas": 9017,
      "racy": 9018,
      "ghan": 9019,
      "Ġoverl": 9020,
      "Ġshoulder": 9021,
      "ucky": 9022,
      "Ġstrengthen": 9023,
      "Ġgolden": 9024,
      "Ġdistributed": 9025,
      "Ġopinions": 9026,
      "Ġdipl": 9027,
      "ĠCou": 9028,
      "Ġovernight": 9029,
      "Ġexclus": 9030,
      "Ġarrangements": 9031,
      "ĠLimited": 9032,
      "Col": 9033,
      "Ġought": 9034,
      "style": 9035,
      "Ġfraud": 9036,
      "stein": 9037,
      "Ġhits": 9038,
      "eties": 9039,
      "ĠMess": 9040,
      "ospel": 9041,
      "Ġovercome": 9042,
      "Ġsurely": 9043,
      "Ġinvesting": 9044,
      "inois": 9045,
      "ĠPartners": 9046,
      "Ġtargeted": 9047,
      "Ġthousand": 9048,
      "Ġstruggling": 9049,
      "Ġmistakes": 9050,
      "cia": 9051,
      "ĠMother": 9052,
      "Ġdesigning": 9053,
      "Ġ120": 9054,
      "Ġsmartphone": 9055,
      "Ġrarely": 9056,
      "Ġsees": 9057,
      "Ġperformances": 9058,
      "Ġputs": 9059,
      "ĠPrime": 9060,
      "EX": 9061,
      "TV": 9062,
      "urious": 9063,
      "ifi": 9064,
      "Ġvoc": 9065,
      "ĠKent": 9066,
      "letter": 9067,
      "Ġconstructed": 9068,
      "Ġshapes": 9069,
      "ĠIce": 9070,
      "Ġrhy": 9071,
      "ĠEstate": 9072,
      "ĠScotland": 9073,
      "Ġescape": 9074,
      "Ġpowers": 9075,
      "Ġvendors": 9076,
      "Ġweapons": 9077,
      "aska": 9078,
      "ĠBM": 9079,
      "employ": 9080,
      "Ġabilities": 9081,
      "ĠOcean": 9082,
      "Ġoverse": 9083,
      "Ġpossibilities": 9084,
      "Ġalleged": 9085,
      "ĠTurn": 9086,
      "nell": 9087,
      "Ġengineers": 9088,
      "Ġcontractor": 9089,
      "Ġphenomen": 9090,
      "CP": 9091,
      "Home": 9092,
      "Ġmath": 9093,
      "asted": 9094,
      "Ġindoor": 9095,
      "Ġexamine": 9096,
      "oom": 9097,
      "Ġsorry": 9098,
      "uru": 9099,
      "Ġ42": 9100,
      "Ġsurge": 9101,
      "Ġdelivers": 9102,
      "Ġhearts": 9103,
      "Ġadministrative": 9104,
      "lined": 9105,
      "Ġft": 9106,
      "Ġknock": 9107,
      "Ġdecline": 9108,
      "Ġentert": 9109,
      "ĠForce": 9110,
      "Ġcameras": 9111,
      "Ġhoney": 9112,
      "Ġyards": 9113,
      "ulator": 9114,
      "Ġfewer": 9115,
      "Ġquantity": 9116,
      "Ġordinary": 9117,
      "TER": 9118,
      "Two": 9119,
      "Ġpor": 9120,
      "imental": 9121,
      "Ġconventional": 9122,
      "ĠDJ": 9123,
      "Ġsuite": 9124,
      "Ġoverview": 9125,
      "ordinary": 9126,
      "Ġsignals": 9127,
      "Ġlegit": 9128,
      "esides": 9129,
      "star": 9130,
      "Ġcolon": 9131,
      "Ġreceipt": 9132,
      "ĠCollection": 9133,
      "ĠCancer": 9134,
      "Ġstayed": 9135,
      "ĠPrivate": 9136,
      "burgh": 9137,
      "Ġhanging": 9138,
      "Ġreject": 9139,
      "ĠCivil": 9140,
      "Ġheaven": 9141,
      "ĠJustice": 9142,
      "Ġaccommodate": 9143,
      "Ġsemin": 9144,
      "Ġcontents": 9145,
      "ĠKim": 9146,
      "Ġnetworking": 9147,
      "Ġdiscussions": 9148,
      "ĠÑģ": 9149,
      "ĠMade": 9150,
      "Ġprohib": 9151,
      "ĠStan": 9152,
      "Ġspecialized": 9153,
      "Ġheavily": 9154,
      "ĠDom": 9155,
      "Ġwashing": 9156,
      "Ġproduces": 9157,
      "Ġpatio": 9158,
      "ĠBrother": 9159,
      "best": 9160,
      "stract": 9161,
      "ĠAvenue": 9162,
      "section": 9163,
      "Ġtwist": 9164,
      "cycle": 9165,
      "xygen": 9166,
      "cor": 9167,
      "ĠPop": 9168,
      "Ġ1980": 9169,
      "athan": 9170,
      "Ġsalad": 9171,
      "iot": 9172,
      "onic": 9173,
      "Ġincent": 9174,
      "Ġprime": 9175,
      "Ġanniversary": 9176,
      "Ġcuts": 9177,
      "Ġtournament": 9178,
      "Ġcooling": 9179,
      "Ġencounter": 9180,
      "rets": 9181,
      "Ġwins": 9182,
      "olis": 9183,
      "rug": 9184,
      "Ġgenerations": 9185,
      "Ġtoilet": 9186,
      "Ġwake": 9187,
      "ĠBan": 9188,
      "Ġcloth": 9189,
      "Ġactively": 9190,
      "ILL": 9191,
      "Ġrepeat": 9192,
      "Ġscenes": 9193,
      "http": 9194,
      "Ġcrown": 9195,
      "ĠNic": 9196,
      "obe": 9197,
      "Ġtranslation": 9198,
      "ĠÐ°": 9199,
      "ĠBridge": 9200,
      "Ġburning": 9201,
      "Ġduties": 9202,
      "Ġpup": 9203,
      "Ġconvin": 9204,
      "ĠVi": 9205,
      "Ġhandy": 9206,
      "Ġdifficulty": 9207,
      "Ġsettlement": 9208,
      "ĠEmploy": 9209,
      "Ġrobust": 9210,
      "Ġsubsequent": 9211,
      "Ġfounder": 9212,
      "icity": 9213,
      "through": 9214,
      "Ġlawn": 9215,
      "Ġfalls": 9216,
      "Ġemotions": 9217,
      "Ġsurvive": 9218,
      "Ġvirtually": 9219,
      "ĠStrateg": 9220,
      "Ġenforcement": 9221,
      "ĠMD": 9222,
      "ĠHappy": 9223,
      "ĠLevel": 9224,
      "Ġoperational": 9225,
      "Ġmargin": 9226,
      "bow": 9227,
      "vals": 9228,
      "isd": 9229,
      "Ġsear": 9230,
      "ĠGreek": 9231,
      "Ġenhanced": 9232,
      "Ġfoam": 9233,
      "Ġbold": 9234,
      "anwhile": 9235,
      "ervice": 9236,
      "Ġaccum": 9237,
      "Ġaddressed": 9238,
      "Ġlosses": 9239,
      "Ġmassage": 9240,
      "Ġsmoke": 9241,
      "ĠProduct": 9242,
      "ĠNav": 9243,
      "Ġfinishing": 9244,
[...]
